{
  "version": "1.0",
  "truncation": null,
  "padding": null,
  "added_tokens": [
    {
      "id": 0,
      "content": "<pad>",
      "single_word": false,
      "lstrip": false,
      "rstrip": false,
      "normalized": false,
      "special": true
    },
    {
      "id": 1,
      "content": "<bos>",
      "single_word": false,
      "lstrip": false,
      "rstrip": false,
      "normalized": false,
      "special": true
    },
    {
      "id": 2,
      "content": "<eos>",
      "single_word": false,
      "lstrip": false,
      "rstrip": false,
      "normalized": false,
      "special": true
    },
    {
      "id": 3,
      "content": "<unk>",
      "single_word": false,
      "lstrip": false,
      "rstrip": false,
      "normalized": false,
      "special": true
    }
  ],
  "normalizer": {
    "type": "NFKC"
  },
  "pre_tokenizer": {
    "type": "ByteLevel",
    "add_prefix_space": true,
    "trim_offsets": true,
    "use_regex": true
  },
  "post_processor": {
    "type": "TemplateProcessing",
    "single": [
      {
        "SpecialToken": {
          "id": "<bos>",
          "type_id": 0
        }
      },
      {
        "Sequence": {
          "id": "A",
          "type_id": 0
        }
      },
      {
        "SpecialToken": {
          "id": "<eos>",
          "type_id": 0
        }
      }
    ],
    "pair": [
      {
        "Sequence": {
          "id": "A",
          "type_id": 0
        }
      },
      {
        "Sequence": {
          "id": "B",
          "type_id": 1
        }
      }
    ],
    "special_tokens": {
      "<bos>": {
        "id": "<bos>",
        "ids": [
          1
        ],
        "tokens": [
          "<bos>"
        ]
      },
      "<eos>": {
        "id": "<eos>",
        "ids": [
          2
        ],
        "tokens": [
          "<eos>"
        ]
      }
    }
  },
  "decoder": {
    "type": "ByteLevel",
    "add_prefix_space": true,
    "trim_offsets": true,
    "use_regex": true
  },
  "model": {
    "type": "BPE",
    "dropout": null,
    "unk_token": "<unk>",
    "continuing_subword_prefix": null,
    "end_of_word_suffix": null,
    "fuse_unk": false,
    "byte_fallback": false,
    "ignore_merges": false,
    "vocab": {
      "<pad>": 0,
      "<bos>": 1,
      "<eos>": 2,
      "<unk>": 3,
      "!": 4,
      "\"": 5,
      "#": 6,
      "$": 7,
      "%": 8,
      "&": 9,
      "'": 10,
      "(": 11,
      ")": 12,
      "+": 13,
      ",": 14,
      "-": 15,
      ".": 16,
      "/": 17,
      "0": 18,
      "1": 19,
      "2": 20,
      "3": 21,
      "4": 22,
      "5": 23,
      "6": 24,
      "7": 25,
      "8": 26,
      "9": 27,
      ":": 28,
      ";": 29,
      "<": 30,
      "=": 31,
      ">": 32,
      "?": 33,
      "@": 34,
      "A": 35,
      "B": 36,
      "C": 37,
      "D": 38,
      "E": 39,
      "F": 40,
      "G": 41,
      "H": 42,
      "I": 43,
      "J": 44,
      "K": 45,
      "L": 46,
      "M": 47,
      "N": 48,
      "O": 49,
      "P": 50,
      "Q": 51,
      "R": 52,
      "S": 53,
      "T": 54,
      "U": 55,
      "V": 56,
      "W": 57,
      "X": 58,
      "Y": 59,
      "Z": 60,
      "[": 61,
      "]": 62,
      "^": 63,
      "a": 64,
      "b": 65,
      "c": 66,
      "d": 67,
      "e": 68,
      "f": 69,
      "g": 70,
      "h": 71,
      "i": 72,
      "j": 73,
      "k": 74,
      "l": 75,
      "m": 76,
      "n": 77,
      "o": 78,
      "p": 79,
      "q": 80,
      "r": 81,
      "s": 82,
      "t": 83,
      "u": 84,
      "v": 85,
      "w": 86,
      "x": 87,
      "y": 88,
      "z": 89,
      "¡": 90,
      "¢": 91,
      "£": 92,
      "¤": 93,
      "¥": 94,
      "¦": 95,
      "§": 96,
      "¨": 97,
      "©": 98,
      "ª": 99,
      "«": 100,
      "¬": 101,
      "¯": 102,
      "°": 103,
      "±": 104,
      "²": 105,
      "³": 106,
      "µ": 107,
      "¶": 108,
      "·": 109,
      "¸": 110,
      "¹": 111,
      "º": 112,
      "»": 113,
      "¼": 114,
      "½": 115,
      "¾": 116,
      "¿": 117,
      "Â": 118,
      "Ã": 119,
      "Ä": 120,
      "Å": 121,
      "È": 122,
      "Ì": 123,
      "Î": 124,
      "Ï": 125,
      "Ð": 126,
      "Ñ": 127,
      "à": 128,
      "á": 129,
      "â": 130,
      "ã": 131,
      "ä": 132,
      "å": 133,
      "ç": 134,
      "è": 135,
      "ê": 136,
      "ì": 137,
      "ï": 138,
      "Ċ": 139,
      "č": 140,
      "Ġ": 141,
      "Ģ": 142,
      "ģ": 143,
      "Ĥ": 144,
      "ĥ": 145,
      "Ħ": 146,
      "ħ": 147,
      "Ĩ": 148,
      "ĩ": 149,
      "Ī": 150,
      "ī": 151,
      "Į": 152,
      "į": 153,
      "İ": 154,
      "ı": 155,
      "Ĳ": 156,
      "ĳ": 157,
      "Ĵ": 158,
      "ĵ": 159,
      "Ķ": 160,
      "ķ": 161,
      "ĸ": 162,
      "Ĺ": 163,
      "ĺ": 164,
      "Ļ": 165,
      "ļ": 166,
      "Ľ": 167,
      "ľ": 168,
      "Ŀ": 169,
      "ŀ": 170,
      "Ł": 171,
      "ł": 172,
      "Ń": 173,
      "he": 174,
      "Ġt": 175,
      "Ġa": 176,
      "Ġs": 177,
      "Ġthe": 178,
      "Ġw": 179,
      "nd": 180,
      "ed": 181,
      "in": 182,
      "Ġand": 183,
      "re": 184,
      "Ġb": 185,
      "Ġto": 186,
      "Ġh": 187,
      "er": 188,
      "Ġf": 189,
      "Ġo": 190,
      "it": 191,
      "Ġwa": 192,
      "Ġc": 193,
      "ou": 194,
      "ĠT": 195,
      "Ġp": 196,
      "Ġd": 197,
      "Ġl": 198,
      "is": 199,
      "Ġm": 200,
      "čĊ": 201,
      "ar": 202,
      "at": 203,
      "on": 204,
      "ing": 205,
      "en": 206,
      "om": 207,
      "Ġhe": 208,
      "Ġwas": 209,
      "an": 210,
      "il": 211,
      "or": 212,
      "ĠThe": 213,
      "ay": 214,
      "es": 215,
      "ĠS": 216,
      "Ġg": 217,
      "id": 218,
      "Ġn": 219,
      "Ġin": 220,
      "Ġha": 221,
      "al": 222,
      "Ġth": 223,
      "Ġof": 224,
      "Ġ,": 225,
      "Ġ\"": 226,
      "im": 227,
      "Ġsa": 228,
      "ĠH": 229,
      "le": 230,
      "ut": 231,
      "Ġit": 232,
      "ot": 233,
      "ic": 234,
      "et": 235,
      "Ġ.": 236,
      "el": 237,
      "ir": 238,
      "Ġe": 239,
      "ow": 240,
      "ver": 241,
      "Ġher": 242,
      "ĠShe": 243,
      "ĠL": 244,
      "ĠHe": 245,
      "ac": 246,
      "am": 247,
      "st": 248,
      "ig": 249,
      "ĠI": 250,
      "ĠB": 251,
      "Ġu": 252,
      "Ġr": 253,
      "Ġon": 254,
      "Ġst": 255,
      "ĠThey": 256,
      "Ġbe": 257,
      "oo": 258,
      "ld": 259,
      "ith": 260,
      "ve": 261,
      "Ġy": 262,
      "Ġwith": 263,
      "ent": 264,
      "ly": 265,
      "ad": 266,
      "ĠA": 267,
      "Ġre": 268,
      "ke": 269,
      "ily": 270,
      "ĠM": 271,
      "pp": 272,
      "ĠO": 273,
      "ri": 274,
      "Ġsaid": 275,
      "Ġthat": 276,
      "Ġhis": 277,
      "ked": 278,
      "Ġshe": 279,
      "nt": 280,
      "Ġfor": 281,
      "Ġpl": 282,
      "ĠOn": 283,
      "ĠLily": 284,
      "Ġyou": 285,
      "Ġso": 286,
      "se": 287,
      "ion": 288,
      "Ġwe": 289,
      "ll": 290,
      "ce": 291,
      "un": 292,
      "Ġhad": 293,
      "ur": 294,
      "Ġday": 295,
      "Ġis": 296,
      "very": 297,
      "her": 298,
      "Ġas": 299,
      "Ġwh": 300,
      "Ġsh": 301,
      "ter": 302,
      "Ġup": 303,
      "Ġthey": 304,
      "Ġplay": 305,
      "ould": 306,
      "Ġnot": 307,
      "Ġli": 308,
      "ec": 309,
      "Ġan": 310,
      "end": 311,
      "Ġmom": 312,
      "ound": 313,
      "uc": 314,
      "ra": 315,
      "my": 316,
      "'s": 317,
      "Ġdo": 318,
      "ome": 319,
      "Ġat": 320,
      "ro": 321,
      "Ġne": 322,
      "ht": 323,
      "ĠJ": 324,
      "ack": 325,
      "Ġhapp": 326,
      "ime": 327,
      "Ġwant": 328,
      "Ġwere": 329,
      "Ġk": 330,
      "Ġbut": 331,
      "Ġtime": 332,
      "itt": 333,
      "ry": 334,
      "ĠC": 335,
      "ul": 336,
      "ide": 337,
      "ore": 338,
      "ill": 339,
      "Ġse": 340,
      "Ġthere": 341,
      "ĠIt": 342,
      "ĠW": 343,
      "Ġ1": 344,
      "Ġbig": 345,
      "ain": 346,
      "rom": 347,
      "riend": 348,
      "Ġfriend": 349,
      "um": 350,
      "as": 351,
      "Ġsm": 352,
      "ard": 353,
      "Ġvery": 354,
      "ved": 355,
      "Ġare": 356,
      "Ġhappy": 357,
      "Ġlo": 358,
      "ittle": 359,
      "ug": 360,
      "ted": 361,
      "Ġlittle": 362,
      ".\"": 363,
      "ake": 364,
      "Ġsaw": 365,
      "all": 366,
      "ĠOne": 367,
      "ol": 368,
      "Ġbo": 369,
      "Ġloo": 370,
      "Ġgo": 371,
      "Ġex": 372,
      "ĠBen": 373,
      "Ġhim": 374,
      "!\"": 375,
      "Ġj": 376,
      "Ġtheir": 377,
      "ĠD": 378,
      "Ġsp": 379,
      "'t": 380,
      "Ġtoo": 381,
      "Ġal": 382,
      "Ġout": 383,
      "ĠOnce": 384,
      "hen": 385,
      "Ġ-": 386,
      "Ġthem": 387,
      "Ġhave": 388,
      "op": 389,
      "ind": 390,
      "us": 391,
      "Ġar": 392,
      "if": 393,
      "ĠTim": 394,
      "Ġ'": 395,
      "ays": 396,
      "ch": 397,
      "Ġfrom": 398,
      "ĠF": 399,
      "Ġupon": 400,
      "ĠP": 401,
      "oug": 402,
      "ong": 403,
      "ight": 404,
      "hed": 405,
      "Ġcould": 406,
      "th": 407,
      "Ġall": 408,
      "irl": 409,
      "ag": 410,
      "ark": 411,
      "Ġwanted": 412,
      "ame": 413,
      "est": 414,
      "ĠE": 415,
      "Ġdid": 416,
      "Ġle": 417,
      "ood": 418,
      "ud": 419,
      "Ġca": 420,
      "ĠR": 421,
      "Ġgirl": 422,
      "ell": 423,
      "ĠTom": 424,
      "ure": 425,
      "one": 426,
      "Ġby": 427,
      "Ġcan": 428,
      "Ġcl": 429,
      "Ġsmil": 430,
      "ers": 431,
      "Ġhel": 432,
      "Ġback": 433,
      "amed": 434,
      "Ġ2": 435,
      "Ġv": 436,
      "Ġkn": 437,
      "Ġfriends": 438,
      "Ġhelp": 439,
      "ks": 440,
      "Ġwent": 441,
      "ie": 442,
      "em": 443,
      "ĠBut": 444,
      "Ġno": 445,
      "own": 446,
      "and": 447,
      "ist": 448,
      "Ġsc": 449,
      "ation": 450,
      "Ġro": 451,
      "ab": 452,
      "?\"": 453,
      "ss": 454,
      "Ġstar": 455,
      "Ġman": 456,
      "ice": 457,
      "Ġwor": 458,
      "You": 459,
      "ak": 460,
      "Ġcon": 461,
      "out": 462,
      "Ġnamed": 463,
      "Ġcom": 464,
      "Ġwould": 465,
      "Ġlike": 466,
      "Ġfun": 467,
      "Ġag": 468,
      "ther": 469,
      "ast": 470,
      "ess": 471,
      "ust": 472,
      "qu": 473,
      "ĠG": 474,
      "Ġch": 475,
      "hing": 476,
      "ree": 477,
      "ĠN": 478,
      "Ġme": 479,
      "ally": 480,
      "elt": 481,
      "side": 482,
      "Ġloved": 483,
      "Ġfe": 484,
      "ap": 485,
      "ful": 486,
      "Ġaround": 487,
      "os": 488,
      "ep": 489,
      "Ġlooked": 490,
      "ant": 491,
      "Ġpr": 492,
      "way": 493,
      "Ġsome": 494,
      "Ġab": 495,
      "ade": 496,
      "Ġfelt": 497,
      "ĠTimmy": 498,
      "Ġsmiled": 499,
      "Ġcar": 500,
      "get": 501,
      "Ġother": 502,
      "Ġasked": 503,
      "Ġor": 504,
      "ous": 505,
      "ings": 506,
      "ate": 507,
      "Ġwho": 508,
      "Ġtoy": 509,
      "Ġboy": 510,
      "Ġsays": 511,
      "ies": 512,
      "ird": 513,
      "ick": 514,
      "ue": 515,
      "ited": 516,
      "Ġ19": 517,
      "Ġ(": 518,
      "omet": 519,
      "ach": 520,
      "Ġsee": 521,
      "Ġ)": 522,
      "ct": 523,
      "pl": 524,
      "Ġwhen": 525,
      "Ġnew": 526,
      "Ġpre": 527,
      "oc": 528,
      "Ġwhat": 529,
      "Ġstarted": 530,
      "ive": 531,
      "ĠYou": 532,
      "Ġran": 533,
      "uch": 534,
      "Ġagain": 535,
      "Ġmake": 536,
      ",\"": 537,
      "Ġbr": 538,
      "Ġint": 539,
      "Ġone": 540,
      "Ġaway": 541,
      "oud": 542,
      "gether": 543,
      "ber": 544,
      "ear": 545,
      "Ġsomet": 546,
      "Ġbird": 547,
      "art": 548,
      "ial": 549,
      "Ġdec": 550,
      "Ã¢": 551,
      "âĤ": 552,
      "âĤ¬": 553,
      "Ġmade": 554,
      "our": 555,
      "Ġfound": 556,
      "Ġgr": 557,
      "ĠMom": 558,
      "ĠAn": 559,
      "Ġtogether": 560,
      "ish": 561,
      "Ġgood": 562,
      "av": 563,
      "ang": 564,
      "ned": 565,
      "Ġthen": 566,
      "Ġpark": 567,
      "ook": 568,
      "Ġtr": 569,
      "Ġsad": 570,
      "ace": 571,
      "fter": 572,
      "na": 573,
      "Ġbec": 574,
      "ouse": 575,
      "ort": 576,
      "ough": 577,
      "Ġfl": 578,
      "ried": 579,
      "fe": 580,
      "Ġtw": 581,
      "Ġexc": 582,
      "Ġsomething": 583,
      "nder": 584,
      "Ġhug": 585,
      "Ġmo": 586,
      "Ġhome": 587,
      "Ġabout": 588,
      "ine": 589,
      "Ġbl": 590,
      "ought": 591,
      "pped": 592,
      "Ġwal": 593,
      "Ġdown": 594,
      "ia": 595,
      "Ġpo": 596,
      "Ġ20": 597,
      "Ġpro": 598,
      "Ġplaying": 599,
      "ared": 600,
      "Ġget": 601,
      "ided": 602,
      "king": 603,
      "Ġput": 604,
      "Ġthan": 605,
      "ub": 606,
      "ax": 607,
      "Ġthis": 608,
      "Ġmore": 609,
      "ip": 610,
      "ew": 611,
      "ite": 612,
      "hat": 613,
      "iv": 614,
      "ĠK": 615,
      "Ġco": 616,
      "Ġmy": 617,
      "ĠAnna": 618,
      "Ġad": 619,
      "Ġliked": 620,
      "Ġsw": 621,
      "Ġevery": 622,
      "are": 623,
      "pt": 624,
      "Ġover": 625,
      "ave": 626,
      "ĠIn": 627,
      "aug": 628,
      "Ġdecided": 629,
      "Ġgot": 630,
      "ich": 631,
      "Ġinto": 632,
      "Ġcame": 633,
      "Ġthings": 634,
      "ny": 635,
      "uck": 636,
      "Ġyour": 637,
      "ile": 638,
      "Ġtook": 639,
      "Ġexcited": 640,
      "here": 641,
      "Ġwill": 642,
      "Ġde": 643,
      "Ġke": 644,
      "reat": 645,
      "Ġoff": 646,
      "Ġen": 647,
      "udd": 648,
      "Ġfeel": 649,
      "ity": 650,
      "Ġop": 651,
      "Ġits": 652,
      "ob": 653,
      "Ġfo": 654,
      "Ġdog": 655,
      "iz": 656,
      "ise": 657,
      "Ġwater": 658,
      "ged": 659,
      "Ġtake": 660,
      "ĠSam": 661,
      "Ġspec": 662,
      "Ġpe": 663,
      "Ġany": 664,
      "ĠJo": 665,
      "ĠHer": 666,
      "Ġfi": 667,
      "ĠMax": 668,
      "Ġcare": 669,
      "Ġscared": 670,
      "ara": 671,
      "Ġev": 672,
      "ated": 673,
      "Ġknow": 674,
      "ge": 675,
      "Ġpic": 676,
      "other": 677,
      "ect": 678,
      "Ġbet": 679,
      "Ġgra": 680,
      "ened": 681,
      "ĠSo": 682,
      "au": 683,
      "so": 684,
      "Ġstr": 685,
      "Ġhouse": 686,
      "Ġfind": 687,
      "ĠWhen": 688,
      "ff": 689,
      "Ġdad": 690,
      "Ġthought": 691,
      "ways": 692,
      "Ġim": 693,
      "ary": 694,
      "ĠU": 695,
      "Ġoutside": 696,
      "Ġus": 697,
      "Ġtoys": 698,
      "orry": 699,
      "Ġsl": 700,
      "Ġcont": 701,
      "Ġold": 702,
      "ĠSt": 703,
      "Ġdidn": 704,
      "Ġlot": 705,
      "Ġshow": 706,
      "Ġmommy": 707,
      "ass": 708,
      "Ġtree": 709,
      "Ġalways": 710,
      "Ġrun": 711,
      "oth": 712,
      "Ġalso": 713,
      "Ġmuch": 714,
      "Ġhas": 715,
      "Ġhand": 716,
      "Ġqu": 717,
      "Ġtwo": 718,
      "ĠSara": 719,
      "ft": 720,
      "Ġsun": 721,
      "Ġsorry": 722,
      "Ġeach": 723,
      "ank": 724,
      "ment": 725,
      "Ġcat": 726,
      "Ġexpl": 727,
      "Ġam": 728,
      "Ġball": 729,
      "Ġyear": 730,
      "Ġmany": 731,
      "od": 732,
      "ian": 733,
      "Ġlear": 734,
      "Ġho": 735,
      "Ġspecial": 736,
      "Ġac": 737,
      "Ġhow": 738,
      "Ġeat": 739,
      "ĠJack": 740,
      "udden": 741,
      "orn": 742,
      "âĢ": 743,
      "Ġgave": 744,
      "elf": 745,
      "age": 746,
      "Ġcol": 747,
      "ull": 748,
      "ild": 749,
      "Ġjust": 750,
      "Ġroom": 751,
      "Ġtried": 752,
      "Ġun": 753,
      "oy": 754,
      "Ġlong": 755,
      "Ġneed": 756,
      "ĠEvery": 757,
      "Ġper": 758,
      "Ġlaug": 759,
      "ance": 760,
      "igh": 761,
      "ĠâĢ": 762,
      "ool": 763,
      "ump": 764,
      "Ġproud": 765,
      "Ġsmall": 766,
      "irst": 767,
      "Ġunder": 768,
      "Ġknew": 769,
      "hn": 770,
      "Ġ3": 771,
      "ause": 772,
      "Ġte": 773,
      "Ġtold": 774,
      "uddenly": 775,
      "og": 776,
      "ty": 777,
      "wn": 778,
      "Ġwhich": 779,
      "ane": 780,
      "able": 781,
      "Ġif": 782,
      "ĠTh": 783,
      "Ġbox": 784,
      "by": 785,
      "Ġinc": 786,
      "ely": 787,
      "Ġplayed": 788,
      "Ġlook": 789,
      "les": 790,
      "orm": 791,
      "'m": 792,
      "Ġapp": 793,
      "Ġrem": 794,
      "ĠAs": 795,
      "Ġcomp": 796,
      "Ġheard": 797,
      "Ġnever": 798,
      "ase": 799,
      "Ġsk": 800,
      "Ġpart": 801,
      "ors": 802,
      "Ġthr": 803,
      "ount": 804,
      "Ġwr": 805,
      "ign": 806,
      "ble": 807,
      "ished": 808,
      "Ġinside": 809,
      "Ġafter": 810,
      "Ġfirst": 811,
      "Ġche": 812,
      "Ġbecause": 813,
      "mer": 814,
      "Ġbeen": 815,
      "fore": 816,
      "Ġcle": 817,
      "Ġcall": 818,
      "als": 819,
      "Ġend": 820,
      "Ġdis": 821,
      "ail": 822,
      "hes": 823,
      "urt": 824,
      "Ġcouldn": 825,
      "Ġhugged": 826,
      "dy": 827,
      "ink": 828,
      "Ġbu": 829,
      "Ġpret": 830,
      "Ġred": 831,
      "ĠWe": 832,
      "Ġimp": 833,
      "Ġfin": 834,
      "ĠHis": 835,
      "ress": 836,
      "Ġunt": 837,
      "ĠAnd": 838,
      "ions": 839,
      "00": 840,
      "bed": 841,
      "ving": 842,
      "ady": 843,
      "ĠJohn": 844,
      "ward": 845,
      "gry": 846,
      "Ġwhere": 847,
      "ans": 848,
      "ĠSuddenly": 849,
      "Ġbetter": 850,
      "pr": 851,
      "Ġtry": 852,
      "Ġnice": 853,
      "Ġuntil": 854,
      "Ġcr": 855,
      "ater": 856,
      "anc": 857,
      "ĠCh": 858,
      "Ġgl": 859,
      "Ġbefore": 860,
      "ĠFrom": 861,
      "Ġsur": 862,
      "Ġbest": 863,
      "Ġboth": 864,
      "Ġcome": 865,
      "Ġhead": 866,
      "llow": 867,
      "Ġ;": 868,
      "ord": 869,
      "Ġway": 870,
      "iny": 871,
      "Ġfam": 872,
      "Ġwat": 873,
      "iss": 874,
      "Ġbear": 875,
      "Ġcareful": 876,
      "up": 877,
      "Ġres": 878,
      "aking": 879,
      "ĠAfter": 880,
      "Ġsay": 881,
      "self": 882,
      "ered": 883,
      "ople": 884,
      "Yes": 885,
      "ious": 886,
      "ose": 887,
      "ture": 888,
      "Ġbeing": 889,
      "ph": 890,
      "urn": 891,
      "Ġshould": 892,
      "akes": 893,
      "Ġthree": 894,
      "gan": 895,
      "ical": 896,
      "Ġfollow": 897,
      "vent": 898,
      "ons": 899,
      "ence": 900,
      "Ġwhile": 901,
      "iver": 902,
      "Ġdes": 903,
      "Ġjump": 904,
      "ied": 905,
      "ren": 906,
      "ory": 907,
      "Ġpeople": 908,
      "ck": 909,
      "ins": 910,
      "Ġwar": 911,
      "Ġdon": 912,
      "Ġlearned": 913,
      "ĠÃ¢": 914,
      "Ġhurt": 915,
      "Ġlist": 916,
      "Ġclos": 917,
      "Ġeven": 918,
      "Ġtra": 919,
      "ised": 920,
      "act": 921,
      "Ġthrough": 922,
      "ĠMia": 923,
      "Ġthanked": 924,
      "Ġclean": 925,
      "Ġloud": 926,
      "ded": 927,
      "Ġsn": 928,
      "be": 929,
      "led": 930,
      "ond": 931,
      "Ġnod": 932,
      "ition": 933,
      "Åĵ": 934,
      "Ġfamily": 935,
      "ember": 936,
      "man": 937,
      "ting": 938,
      "Ġstay": 939,
      "Ġshare": 940,
      "Ġatt": 941,
      "Ġnear": 942,
      "Ġ200": 943,
      "xt": 944,
      "ĠThen": 945,
      "Ġonly": 946,
      "Ġstill": 947,
      "Ġ201": 948,
      "air": 949,
      "Ġdif": 950,
      "ĠLuc": 951,
      "vel": 952,
      "Ġfr": 953,
      "ire": 954,
      "Ġgame": 955,
      "Ġlove": 956,
      "Ġcalled": 957,
      "Ġrel": 958,
      "Ġkind": 959,
      "Ġground": 960,
      "Th": 961,
      "az": 962,
      "Ġhard": 963,
      "Ġfast": 964,
      "Ġangry": 965,
      "upp": 966,
      "Ġser": 967,
      "Ġsong": 968,
      "ĠAt": 969,
      "aut": 970,
      "we": 971,
      "Ġhigh": 972,
      "Ġlet": 973,
      "arden": 974,
      "ĠLucy": 975,
      "Ġ:": 976,
      "Ġnow": 977,
      "Ġanim": 978,
      "ched": 979,
      "lud": 980,
      "ĠBob": 981,
      "Ġrec": 982,
      "Ġshiny": 983,
      "Ġgarden": 984,
      "Ġlots": 985,
      "ves": 986,
      "Ġyears": 987,
      "It": 988,
      "Ġsafe": 989,
      "amp": 990,
      "Ġuse": 991,
      "Ġsoon": 992,
      "Ġwalked": 993,
      "Ġsky": 994,
      "Ġbra": 995,
      "Ġwork": 996,
      "Ġwind": 997,
      "cess": 998,
      "ey": 999,
      "Ġide": 1000,
      "rent": 1001,
      "Ġreal": 1002,
      "ning": 1003,
      "Ġsing": 1004,
      "ĠBr": 1005,
      "ma": 1006,
      "ream": 1007,
      "Ġfle": 1008,
      "ens": 1009,
      "ĠSp": 1010,
      "ized": 1011,
      "Ġlived": 1012,
      "aw": 1013,
      "ower": 1014,
      "Ġdoor": 1015,
      "Ġused": 1016,
      "ĠâĢĵ": 1017,
      "kay": 1018,
      "Ġbro": 1019,
      "Ġfore": 1020,
      "Ġdra": 1021,
      "Ġbeaut": 1022,
      "eld": 1023,
      "oice": 1024,
      "Ġcry": 1025,
      "ath": 1026,
      "illy": 1027,
      "Ġexplore": 1028,
      "kes": 1029,
      "Ġbad": 1030,
      "Ġlaughed": 1031,
      "Ġnodded": 1032,
      "Ġ4": 1033,
      "Ġ5": 1034,
      "Ġwo": 1035,
      "Ġbre": 1036,
      "Ġown": 1037,
      "Ġgoing": 1038,
      "iful": 1039,
      "Ġperf": 1040,
      "Ġidea": 1041,
      "Ġbeh": 1042,
      "Ġdoes": 1043,
      "Ġ18": 1044,
      "Ġnoise": 1045,
      "Ġbeautiful": 1046,
      "Ġfar": 1047,
      "Ġmus": 1048,
      "Ġinclud": 1049,
      "ĠSue": 1050,
      "Ġrain": 1051,
      "Ġopened": 1052,
      "Ġbel": 1053,
      "Ġear": 1054,
      "Ġdoll": 1055,
      "Ġcontin": 1056,
      "Ġsurpr": 1057,
      "Ġdiffe": 1058,
      "ix": 1059,
      "iced": 1060,
      "Ġfire": 1061,
      "Let": 1062,
      "Ġgive": 1063,
      "Ġsto": 1064,
      "ĠAl": 1065,
      "Ġbecame": 1066,
      "ĠV": 1067,
      "ope": 1068,
      "Ġkeep": 1069,
      "No": 1070,
      "rew": 1071,
      "Ġfish": 1072,
      "Ġnext": 1073,
      "Ġcomm": 1074,
      "land": 1075,
      "Ġset": 1076,
      "Ġgreat": 1077,
      "Ġkept": 1078,
      "ĠThis": 1079,
      "Ġtell": 1080,
      "Ġey": 1081,
      "urned": 1082,
      "thing": 1083,
      "Ġpicked": 1084,
      "Ġpicture": 1085,
      "ather": 1086,
      "ult": 1087,
      "Ġbed": 1088,
      "Ġmon": 1089,
      "ents": 1090,
      "Ġrest": 1091,
      "ng": 1092,
      "Ġrepl": 1093,
      "Ġvoice": 1094,
      "Ġmost": 1095,
      "Ġfeeling": 1096,
      "Ġbrave": 1097,
      "Ġdifferent": 1098,
      "ined": 1099,
      "ock": 1100,
      "Ġpretty": 1101,
      "ange": 1102,
      "Ġstopped": 1103,
      "hy": 1104,
      "ued": 1105,
      "uri": 1106,
      "Ġtre": 1107,
      "Ġbook": 1108,
      "lease": 1109,
      "Ġjo": 1110,
      "Ġsec": 1111,
      "aybe": 1112,
      "uring": 1113,
      "ations": 1114,
      "Ġblue": 1115,
      "Ġslide": 1116,
      "Ġsound": 1117,
      "Ġsuch": 1118,
      "Ġele": 1119,
      "Ġever": 1120,
      "ired": 1121,
      "ĠLe": 1122,
      "Ġboat": 1123,
      "ĠUn": 1124,
      "Ġdel": 1125,
      "Ġclim": 1126,
      "Ġsmile": 1127,
      "Ġworld": 1128,
      "Ġadvent": 1129,
      "ever": 1130,
      "uff": 1131,
      "Ġact": 1132,
      "ached": 1133,
      "Ġstrong": 1134,
      "Ġhands": 1135,
      "bye": 1136,
      "ila": 1137,
      "Ġret": 1138,
      "Ġexp": 1139,
      "Ġwalking": 1140,
      "res": 1141,
      "Ġmet": 1142,
      "Ġquick": 1143,
      "Ġflew": 1144,
      "Ġnoticed": 1145,
      "ross": 1146,
      "Ġsees": 1147,
      "Ġcars": 1148,
      "Ġopen": 1149,
      "Ġgrab": 1150,
      "ven": 1151,
      "Ġ6": 1152,
      "int": 1153,
      "Ġcook": 1154,
      "outh": 1155,
      "ates": 1156,
      "Ġbegan": 1157,
      "Ġanother": 1158,
      "ased": 1159,
      "joy": 1160,
      "ĠJane": 1161,
      "ĠCan": 1162,
      "Ġlooking": 1163,
      "ĠDad": 1164,
      "Ġanimals": 1165,
      "ric": 1166,
      "Ġwait": 1167,
      "Ġeveryone": 1168,
      "ale": 1169,
      "owers": 1170,
      "ĠLila": 1171,
      "Ġsho": 1172,
      "Ġrock": 1173,
      "ĠMommy": 1174,
      "Ġimport": 1175,
      "uit": 1176,
      "Ġpain": 1177,
      "Ġwonder": 1178,
      "iet": 1179,
      "reen": 1180,
      "Ġour": 1181,
      "Ġdro": 1182,
      "ont": 1183,
      "olly": 1184,
      "Ġgoodbye": 1185,
      "Ġeyes": 1186,
      "Ġquickly": 1187,
      "oup": 1188,
      "Ġsand": 1189,
      "ummy": 1190,
      "Ġtruck": 1191,
      "Ġflo": 1192,
      "duc": 1193,
      "Ġmag": 1194,
      "Ġplace": 1195,
      "aper": 1196,
      "Ġwalk": 1197,
      "TM": 1198,
      "red": 1199,
      "att": 1200,
      "let": 1201,
      "ĠAr": 1202,
      "unny": 1203,
      "Ġadventure": 1204,
      "br": 1205,
      "me": 1206,
      "Ġokay": 1207,
      "Ġcuri": 1208,
      "ere": 1209,
      "atter": 1210,
      "ĠThere": 1211,
      "imes": 1212,
      "ets": 1213,
      "Ġseen": 1214,
      "ush": 1215,
      "Ġenjoy": 1216,
      "Ġlisten": 1217,
      "day": 1218,
      "ient": 1219,
      "ert": 1220,
      "Ġfull": 1221,
      "Ġlater": 1222,
      "Ġnight": 1223,
      "Ġright": 1224,
      "Ġyell": 1225,
      "Ġsoft": 1226,
      "Thank": 1227,
      "Ġmusic": 1228,
      "Ġimportant": 1229,
      "That": 1230,
      "bo": 1231,
      "Ġprom": 1232,
      "Ġpull": 1233,
      "ained": 1234,
      "ĠRe": 1235,
      "Ġhelped": 1236,
      "Ġmean": 1237,
      "Ġremember": 1238,
      "wards": 1239,
      "Ġbehind": 1240,
      "Ġtal": 1241,
      "ster": 1242,
      "Ġwarm": 1243,
      "Ġturn": 1244,
      "Ġtop": 1245,
      "Ġfly": 1246,
      "Ġcast": 1247,
      "Ġchild": 1248,
      "What": 1249,
      "bit": 1250,
      "ier": 1251,
      "ms": 1252,
      "Ġfood": 1253,
      "Ġmaking": 1254,
      "ids": 1255,
      "chool": 1256,
      "Ġbuild": 1257,
      "Ġwatch": 1258,
      "We": 1259,
      "cc": 1260,
      "Ġtri": 1261,
      "els": 1262,
      "ĠLet": 1263,
      "Ġpres": 1264,
      "Ġbirds": 1265,
      "Ġswe": 1266,
      "ĠSarah": 1267,
      "more": 1268,
      "Ġent": 1269,
      "Ġcount": 1270,
      "Ġpur": 1271,
      "ĠDo": 1272,
      "Look": 1273,
      "ee": 1274,
      "Ġ7": 1275,
      "Ġ8": 1276,
      "Ġsqu": 1277,
      "ret": 1278,
      "Ġlady": 1279,
      "Ġname": 1280,
      "str": 1281,
      "Ġreached": 1282,
      "Ġhimself": 1283,
      "ner": 1284,
      "Ġlost": 1285,
      "ocks": 1286,
      "Ġflowers": 1287,
      "Ġanymore": 1288,
      "Ġshowed": 1289,
      "Ġamaz": 1290,
      "Ġforest": 1291,
      "Ġcurious": 1292,
      "ual": 1293,
      "Ġdress": 1294,
      "isy": 1295,
      "Ġmil": 1296,
      "Ġheld": 1297,
      "Ġnum": 1298,
      "Ġste": 1299,
      "Ġread": 1300,
      "Ġbutter": 1301,
      "avy": 1302,
      "Ġgrass": 1303,
      "Ġcontinued": 1304,
      "ury": 1305,
      "ĠEm": 1306,
      "Ġsure": 1307,
      "Ġfour": 1308,
      "Ġcreat": 1309,
      "Ġmess": 1310,
      "ating": 1311,
      "ident": 1312,
      "Ġthin": 1313,
      "Ġrep": 1314,
      "Ġlikes": 1315,
      "illed": 1316,
      "gr": 1317,
      "oon": 1318,
      "itc": 1319,
      "Ġdr": 1320,
      "Ġgiv": 1321,
      "ames": 1322,
      "Ġstud": 1323,
      "Ġleft": 1324,
      "Ġacc": 1325,
      "Ġglad": 1326,
      "ger": 1327,
      "mb": 1328,
      "Ġ9": 1329,
      "Ġpass": 1330,
      "Ġless": 1331,
      "Ġbrother": 1332,
      "Ġfix": 1333,
      "Ġbit": 1334,
      "Ġfell": 1335,
      "Ġcut": 1336,
      "Ġland": 1337,
      "Ġhear": 1338,
      "Ġstore": 1339,
      "ooks": 1340,
      "ubl": 1341,
      "Ġunderst": 1342,
      "Ġpretend": 1343,
      "ween": 1344,
      "ike": 1345,
      "sh": 1346,
      "Ġel": 1347,
      "ince": 1348,
      "Ġbunny": 1349,
      "Ġcent": 1350,
      "Ġcra": 1351,
      "outed": 1352,
      "Ġpaper": 1353,
      "Ġstop": 1354,
      "Ġblocks": 1355,
      "Ġgrabbed": 1356,
      "Can": 1357,
      "bum": 1358,
      "ually": 1359,
      "Ġz": 1360,
      "reed": 1361,
      "ision": 1362,
      "ĠAll": 1363,
      "Ġpond": 1364,
      "ĠEveryone": 1365,
      "Ġcloser": 1366,
      "Ġschool": 1367,
      "Ġhat": 1368,
      "Ġcool": 1369,
      "ored": 1370,
      "icy": 1371,
      "ason": 1372,
      "Ġfew": 1373,
      "Ġwatched": 1374,
      "Ġhill": 1375,
      "Ġfav": 1376,
      "Ġhere": 1377,
      "Ġhaving": 1378,
      "leep": 1379,
      "Ġstory": 1380,
      "ugg": 1381,
      "ĠTommy": 1382,
      "iew": 1383,
      "Ġworked": 1384,
      "Ġchar": 1385,
      "Ġfollowed": 1386,
      "Ġreplied": 1387,
      "itchen": 1388,
      "Ġlar": 1389,
      "Ġgu": 1390,
      "Ġgen": 1391,
      "Ġthing": 1392,
      "eter": 1393,
      "Ġstick": 1394,
      "Ġshouted": 1395,
      "Ġkitchen": 1396,
      "Ġbetween": 1397,
      "Ġbooks": 1398,
      "ĠThat": 1399,
      "ister": 1400,
      "Ġreg": 1401,
      "Ġforg": 1402,
      "Ġwhy": 1403,
      "Ġwhite": 1404,
      "aby": 1405,
      "Ġdisc": 1406,
      "Ġbutterf": 1407,
      "where": 1408,
      "Ġwell": 1409,
      "ines": 1410,
      "Ġdri": 1411,
      "Ġmum": 1412,
      "Ġreally": 1413,
      "ĠFl": 1414,
      "Ġbright": 1415,
      "Ġfloor": 1416,
      "Ġsweet": 1417,
      "aisy": 1418,
      "Ġside": 1419,
      "Ġwon": 1420,
      "Ġmar": 1421,
      "Ġplant": 1422,
      "ĠJim": 1423,
      "Ġhold": 1424,
      "Ġdesign": 1425,
      "ps": 1426,
      "ton": 1427,
      "Ġair": 1428,
      "Ġsign": 1429,
      "ular": 1430,
      "Ġspot": 1431,
      "Wow": 1432,
      "der": 1433,
      "ove": 1434,
      "ĠY": 1435,
      "Ġbow": 1436,
      "Ġlight": 1437,
      "Ġinter": 1438,
      "Ġcoming": 1439,
      "Ġmove": 1440,
      "Ġtrees": 1441,
      "ling": 1442,
      "eddy": 1443,
      "inally": 1444,
      "Ġhop": 1445,
      "erous": 1446,
      "Ġduring": 1447,
      "Ġmouse": 1448,
      "Ġgone": 1449,
      "Ġthink": 1450,
      "ama": 1451,
      "Ġate": 1452,
      "ĠWh": 1453,
      "Ġloc": 1454,
      "Ġarri": 1455,
      "Ġclose": 1456,
      "Ġcons": 1457,
      "Ġ199": 1458,
      "Ġswim": 1459,
      "Ġrealized": 1460,
      "Ġperform": 1461,
      "med": 1462,
      "ple": 1463,
      "Ġsupp": 1464,
      "Ġpick": 1465,
      "Ġmorn": 1466,
      "Ġsame": 1467,
      "vers": 1468,
      "Ġhappened": 1469,
      "Ġjumped": 1470,
      "Ġcastle": 1471,
      "Ġtall": 1472,
      "Ġtown": 1473,
      "aring": 1474,
      "ott": 1475,
      "Ġhappily": 1476,
      "Ġcolors": 1477,
      "'re": 1478,
      "ken": 1479,
      "Ġind": 1480,
      "Ġsy": 1481,
      "Ġtow": 1482,
      "Ġmin": 1483,
      "ats": 1484,
      "ĠSally": 1485,
      "aced": 1486,
      "ĠAmy": 1487,
      "Ġalbum": 1488,
      "Ġleav": 1489,
      "Ġvis": 1490,
      "Ġappear": 1491,
      "ĠSpot": 1492,
      "Ġelse": 1493,
      "Ġmorning": 1494,
      "iam": 1495,
      "Ġob": 1496,
      "Ġpol": 1497,
      "Ġinv": 1498,
      "Ġplan": 1499,
      "Ġleg": 1500,
      "Ġfield": 1501,
      "Ġfinished": 1502,
      "app": 1503,
      "gon": 1504,
      "ral": 1505,
      "Ġsat": 1506,
      "Ġthese": 1507,
      "inted": 1508,
      "irt": 1509,
      "ĠBilly": 1510,
      "Ġship": 1511,
      "Ġkids": 1512,
      "ĠDaisy": 1513,
      "ement": 1514,
      "Ġcold": 1515,
      "Ġresp": 1516,
      "ible": 1517,
      "Ġtast": 1518,
      "Ġwhe": 1519,
      "Ġwished": 1520,
      "Ġfight": 1521,
      "Ġmakes": 1522,
      "Ġready": 1523,
      "Ġsomeone": 1524,
      "Ġlaugh": 1525,
      "Ġtrain": 1526,
      "Ġsurprise": 1527,
      "Ġchildren": 1528,
      "Ġarrived": 1529,
      "ject": 1530,
      "ndma": 1531,
      "Ġface": 1532,
      "Ġpop": 1533,
      "Ġdance": 1534,
      "Ġmiss": 1535,
      "atch": 1536,
      "Ġyummy": 1537,
      "Ġdays": 1538,
      "Ġ10": 1539,
      "Ġext": 1540,
      "ĠNew": 1541,
      "ction": 1542,
      "arent": 1543,
      "Ġbelie": 1544,
      "Ġremembered": 1545,
      "aj": 1546,
      "tion": 1547,
      "Ġtable": 1548,
      "Ġwood": 1549,
      "Ġhid": 1550,
      "Ġfil": 1551,
      "iting": 1552,
      "Ġcour": 1553,
      "eng": 1554,
      "Ġherself": 1555,
      "Ġrab": 1556,
      "ĠMar": 1557,
      "Ġshap": 1558,
      "Ġwants": 1559,
      "Ġlooks": 1560,
      "Ġalong": 1561,
      "Ġrabbit": 1562,
      "ost": 1563,
      "Ġwin": 1564,
      "Ġdist": 1565,
      "orth": 1566,
      "Ġgreen": 1567,
      "ĠMolly": 1568,
      "used": 1569,
      "erson": 1570,
      "Ġconf": 1571,
      "Ġunderstand": 1572,
      "Ġbutterfly": 1573,
      "Mom": 1574,
      "ne": 1575,
      "Ġsit": 1576,
      "Ġhot": 1577,
      "Ġpubl": 1578,
      "enc": 1579,
      "ork": 1580,
      "Ġref": 1581,
      "Ġyoung": 1582,
      "Ġagreed": 1583,
      "Ġ196": 1584,
      "Ġrunning": 1585,
      "Ġclimb": 1586,
      "Ġyellow": 1587,
      "Ġnumber": 1588,
      "ib": 1589,
      "row": 1590,
      "unt": 1591,
      "Ġsuc": 1592,
      "Ġcake": 1593,
      "Ġpupp": 1594,
      "Ġdark": 1595,
      "Ġdone": 1596,
      "Ġgent": 1597,
      "Ġriver": 1598,
      "Ġdoing": 1599,
      "olog": 1600,
      "ific": 1601,
      "ĠRo": 1602,
      "Ġstart": 1603,
      "ctor": 1604,
      "Ġfavor": 1605,
      "cri": 1606,
      "ues": 1607,
      "Ġtired": 1608,
      "Ġsleep": 1609,
      "Ġtouch": 1610,
      "Ġcried": 1611,
      "Ġdream": 1612,
      "Ġmight": 1613,
      "Ġmark": 1614,
      "ries": 1615,
      "ĠCom": 1616,
      "ash": 1617,
      "Ġcand": 1618,
      "Ġworry": 1619,
      "Ġproduc": 1620,
      "Ġanything": 1621,
      "Ġslow": 1622,
      "Ġcatch": 1623,
      "Ġdraw": 1624,
      "ming": 1625,
      "Ġmix": 1626,
      "ĠDe": 1627,
      "Ġable": 1628,
      "Ġbrought": 1629,
      "ĠJoe": 1630,
      "Ġrecord": 1631,
      "Ġbroken": 1632,
      "Ġ00": 1633,
      "Ġtail": 1634,
      "Ġbus": 1635,
      "Ġfilled": 1636,
      "Ġdep": 1637,
      "Ġmother": 1638,
      "Ġlife": 1639,
      "ĠWhat": 1640,
      "Ġgrow": 1641,
      "Ġadd": 1642,
      "Ġswing": 1643,
      "Ġkey": 1644,
      "Ġlearn": 1645,
      "Ġwindow": 1646,
      "Ġincluding": 1647,
      "Ġsecond": 1648,
      "hip": 1649,
      "ium": 1650,
      "per": 1651,
      "Ġ/": 1652,
      "Ġ0": 1653,
      "Ġsub": 1654,
      "Ġfur": 1655,
      "ities": 1656,
      "Ġph": 1657,
      "Ġpot": 1658,
      "Ġplease": 1659,
      "Ġdanc": 1660,
      "any": 1661,
      "oring": 1662,
      "ĠBl": 1663,
      "Ġbeach": 1664,
      "room": 1665,
      "ĠCl": 1666,
      "ĠBenny": 1667,
      "Ġknown": 1668,
      "Ġblack": 1669,
      "Ġhopped": 1670,
      "Ġseries": 1671,
      "Ġbreak": 1672,
      "ĠUnited": 1673,
      "Ġcookies": 1674,
      "Don": 1675,
      "bers": 1676,
      "iant": 1677,
      "Ġturned": 1678,
      "Ġhun": 1679,
      "Ġwall": 1680,
      "Ġlake": 1681,
      "arl": 1682,
      "ics": 1683,
      "Ġrev": 1684,
      "Ġrece": 1685,
      "ured": 1686,
      "Ġseem": 1687,
      "Ġ15": 1688,
      "Ġgetting": 1689,
      "Ġstrange": 1690,
      "Ġhole": 1691,
      "Ġwrong": 1692,
      "Ġsnow": 1693,
      "Ġearly": 1694,
      "Ġmust": 1695,
      "Ġinf": 1696,
      "Ġass": 1697,
      "rog": 1698,
      "Ġfriendly": 1699,
      "Ġlead": 1700,
      "ello": 1701,
      "ational": 1702,
      "Ġword": 1703,
      "Ġgroup": 1704,
      "ucky": 1705,
      "Ġevent": 1706,
      "Ġruns": 1707,
      "ĠâĢĶ": 1708,
      "Ġbuy": 1709,
      "ness": 1710,
      "Ġve": 1711,
      "Ġtight": 1712,
      "Ġtakes": 1713,
      "Ġfall": 1714,
      "Ġfree": 1715,
      "Ġcal": 1716,
      "Ġpus": 1717,
      "arm": 1718,
      "ately": 1719,
      "Ġhair": 1720,
      "ĠMr": 1721,
      "Ġasks": 1722,
      "ĠGer": 1723,
      "Ġneeded": 1724,
      "Ġpuppy": 1725,
      "af": 1726,
      "Ġbaby": 1727,
      "its": 1728,
      "Ġlast": 1729,
      "ures": 1730,
      "Ġclass": 1731,
      "ĠNow": 1732,
      "Ġ197": 1733,
      "Ġcolor": 1734,
      "ĠBrit": 1735,
      "Ġlesson": 1736,
      "Ġleaves": 1737,
      "io": 1738,
      "mber": 1739,
      "ĠZ": 1740,
      "Ġmill": 1741,
      "ĠHow": 1742,
      "aces": 1743,
      "Ġsol": 1744,
      "ĠJen": 1745,
      "Ġconc": 1746,
      "Ġfunny": 1747,
      "Ġprin": 1748,
      "Ġorig": 1749,
      "Ġthank": 1750,
      "aught": 1751,
      "Ġenough": 1752,
      "Ġteac": 1753,
      "Ġdragon": 1754,
      "arents": 1755,
      "Ġfavorite": 1756,
      "'ll": 1757,
      "yp": 1758,
      "Ġes": 1759,
      "Ġbag": 1760,
      "Ġheavy": 1761,
      "ĠSc": 1762,
      "ĠSh": 1763,
      "Ġask": 1764,
      "Ġroll": 1765,
      "ĠGra": 1766,
      "Ġprot": 1767,
      "Ġpress": 1768,
      "ours": 1769,
      "Ġdelic": 1770,
      "board": 1771,
      "Ġthinks": 1772,
      "oom": 1773,
      "Ġant": 1774,
      "reet": 1775,
      "Ġbar": 1776,
      "Ġfair": 1777,
      "Ġdin": 1778,
      "Ġride": 1779,
      "acks": 1780,
      "ĠWith": 1781,
      "Ġothers": 1782,
      "Ġsurprised": 1783,
      "\".": 1784,
      "ially": 1785,
      "und": 1786,
      "zy": 1787,
      "Ġbell": 1788,
      "Ġtowards": 1789,
      "Ġwaved": 1790,
      "ĠTo": 1791,
      "Ġpar": 1792,
      "ides": 1793,
      "idge": 1794,
      "Ġyard": 1795,
      "ĠMark": 1796,
      "ĠMaybe": 1797,
      "ĠMama": 1798,
      "cept": 1799,
      "unch": 1800,
      "ĠFinally": 1801,
      "Ġroad": 1802,
      "Ġorgan": 1803,
      "Ġfront": 1804,
      "Ġpictures": 1805,
      "Ġwonderful": 1806,
      "Ġlarge": 1807,
      "Ġ000": 1808,
      "but": 1809,
      "less": 1810,
      "ney": 1811,
      "to": 1812,
      "uary": 1813,
      "Ġed": 1814,
      "Ġbite": 1815,
      "Ġhide": 1816,
      "Ġparents": 1817,
      "ters": 1818,
      "Ġ12": 1819,
      "Ġspl": 1820,
      "Ġart": 1821,
      "though": 1822,
      "Ġfox": 1823,
      "meric": 1824,
      "Ġfinally": 1825,
      "Ġcarefully": 1826,
      "Ġdescri": 1827,
      "Ġenjoyed": 1828,
      "Ġsuccess": 1829,
      "Hello": 1830,
      "ah": 1831,
      "ived": 1832,
      "oun": 1833,
      "ises": 1834,
      "Ġthough": 1835,
      "eth": 1836,
      "Ġem": 1837,
      "ste": 1838,
      "ĠAmeric": 1839,
      "Ġliving": 1840,
      "Ġ194": 1841,
      "Ġagainst": 1842,
      "Ġsometimes": 1843,
      "Ġtrans": 1844,
      "Ġtwins": 1845,
      "Ġeverything": 1846,
      "lf": 1847,
      "over": 1848,
      "old": 1849,
      "ten": 1850,
      "Ã©": 1851,
      "Ġice": 1852,
      "Ġsister": 1853,
      "Ġwet": 1854,
      "Ġfrog": 1855,
      "ĠTr": 1856,
      "ĠTwe": 1857,
      "Ġdang": 1858,
      "ilt": 1859,
      "alth": 1860,
      "Ġwee": 1861,
      "Ġseason": 1862,
      "Ġcla": 1863,
      "Ġdef": 1864,
      "Ġpaint": 1865,
      "Ġhum": 1866,
      "Ġcup": 1867,
      "Ġpie": 1868,
      "Ġpink": 1869,
      "ator": 1870,
      "Ġgun": 1871,
      "ote": 1872,
      "ict": 1873,
      "Ġwithout": 1874,
      "Ġsmiles": 1875,
      "Ġwouldn": 1876,
      "Ġoffic": 1877,
      "Ġparty": 1878,
      "ajor": 1879,
      "Ġslowly": 1880,
      "Ġprincess": 1881,
      "bow": 1882,
      "Ġband": 1883,
      "Ġcorn": 1884,
      "Ġmem": 1885,
      "oman": 1886,
      "ese": 1887,
      "Ġsail": 1888,
      "ĠBy": 1889,
      "Ġ17": 1890,
      "Ġju": 1891,
      "Ġjob": 1892,
      "ĠFr": 1893,
      "Ġval": 1894,
      "aster": 1895,
      "TMs": 1896,
      "Ġpulled": 1897,
      "Ġtalk": 1898,
      "Ġpurple": 1899,
      "ĠEmma": 1900,
      "Ġbike": 1901,
      "lex": 1902,
      "ution": 1903,
      "Ġrele": 1904,
      "ĠWar": 1905,
      "Ġ16": 1906,
      "Ġacross": 1907,
      "Ġlistened": 1908,
      "Ġstayed": 1909,
      "velop": 1910,
      "Ġcharac": 1911,
      "Ġvisit": 1912,
      "Ġcourse": 1913,
      "ĠTweet": 1914,
      "Why": 1915,
      "bot": 1916,
      "ipp": 1917,
      "set": 1918,
      "Ġsim": 1919,
      "Ġhig": 1920,
      "Ġfive": 1921,
      "Ġcre": 1922,
      "elc": 1923,
      "igg": 1924,
      "Ġstand": 1925,
      "key": 1926,
      "une": 1927,
      "ĠJust": 1928,
      "Ġsever": 1929,
      "Ġjoy": 1930,
      "Ġprov": 1931,
      "ives": 1932,
      "Ġtrying": 1933,
      "Ġreturned": 1934,
      "Ġgentle": 1935,
      "iec": 1936,
      "Ġter": 1937,
      "Ġteddy": 1938,
      "Ġsilly": 1939,
      "Ġpos": 1940,
      "Ġpiec": 1941,
      "Ġduck": 1942,
      "Ġwasn": 1943,
      "ĠSep": 1944,
      "ley": 1945,
      "Ġstate": 1946,
      "Ġstorm": 1947,
      "ected": 1948,
      "Ġbigger": 1949,
      "ains": 1950,
      "ask": 1951,
      "Ġspo": 1952,
      "Ġspark": 1953,
      "Ġalone": 1954,
      "ĠPo": 1955,
      "oute": 1956,
      "Ġcomes": 1957,
      "Ġpract": 1958,
      "Ġ195": 1959,
      "Ġadm": 1960,
      "Ġrelie": 1961,
      "Ġsingle": 1962,
      "Ġperfect": 1963,
      "Ġamazing": 1964,
      "ĠBritish": 1965,
      "Ġseveral": 1966,
      "Ġpieces": 1967,
      "Oh": 1968,
      "ef": 1969,
      "ov": 1970,
      "rot": 1971,
      "sp": 1972,
      "son": 1973,
      "ze": 1974,
      "Ġtaking": 1975,
      "rel": 1976,
      "Ġtoday": 1977,
      "Ġlit": 1978,
      "Ġoften": 1979,
      "uth": 1980,
      "icks": 1981,
      "irty": 1982,
      "Ġrace": 1983,
      "Ġreach": 1984,
      "ung": 1985,
      "ĠEl": 1986,
      "ĠEng": 1987,
      "Ġleave": 1988,
      "ateful": 1989,
      "Ġgrateful": 1990,
      "Ġmoved": 1991,
      "ĠSoon": 1992,
      "Ġpartic": 1993,
      "Ġwrit": 1994,
      "This": 1995,
      "Ġrainbow": 1996,
      "Ġclimbed": 1997,
      "Ġhungry": 1998,
      "ĠGerman": 1999,
      "Ġdinner": 2000,
      "cle": 2001,
      "ience": 2002,
      "ield": 2003,
      "ron": 2004,
      "Ġsugg": 2005,
      "Ġocc": 2006,
      "Ġcross": 2007,
      "Ġperson": 2008,
      "Ġline": 2009,
      "ison": 2010,
      "Ġmouth": 2011,
      "othes": 2012,
      "ĠIs": 2013,
      "ĠAust": 2014,
      "ift": 2015,
      "Ġeng": 2016,
      "Ġoper": 2017,
      "Ġquiet": 2018,
      "Ġeating": 2019,
      "Ġcray": 2020,
      "uffy": 2021,
      "Ġshoot": 2022,
      "Ġpromised": 2023,
      "Ġgener": 2024,
      "Ġbelieve": 2025,
      "Ġfilm": 2026,
      "Ġdelicious": 2027,
      "ele": 2028,
      "ĠQ": 2029,
      "Ġhon": 2030,
      "Ġhor": 2031,
      "ital": 2032,
      "ility": 2033,
      "Ġgames": 2034,
      "Ġnap": 2035,
      "ows": 2036,
      "igned": 2037,
      "ĠMay": 2038,
      "ĠMary": 2039,
      "Ġsea": 2040,
      "uss": 2041,
      "Ġpointed": 2042,
      "Ġdevelop": 2043,
      "Ġfollowing": 2044,
      "Ġbroke": 2045,
      "Ġowner": 2046,
      "Ġforgot": 2047,
      "ced": 2048,
      "zz": 2049,
      "Ġwelc": 2050,
      "Ġbott": 2051,
      "Ġhit": 2052,
      "Ġcity": 2053,
      "Ġpet": 2054,
      "Ġpower": 2055,
      "Ġmajor": 2056,
      "ative": 2057,
      "oral": 2058,
      "Ġeff": 2059,
      "ĠBe": 2060,
      "Ġra": 2061,
      "Ġshared": 2062,
      "Ġmoment": 2063,
      "Ġmeet": 2064,
      "Ġproble": 2065,
      "Ġcover": 2066,
      "ording": 2067,
      "Ġbelong": 2068,
      "Ġjoin": 2069,
      "Ġcentury": 2070,
      "Ġminut": 2071,
      "Ġwoods": 2072,
      "But": 2073,
      "Maybe": 2074,
      "ik": 2075,
      "Ġ$": 2076,
      "Ġbal": 2077,
      "Ġfa": 2078,
      "Ġdire": 2079,
      "Ġlaw": 2080,
      "Ġmen": 2081,
      "ĠTheir": 2082,
      "stem": 2083,
      "Ġyes": 2084,
      "ĠMum": 2085,
      "rop": 2086,
      "ught": 2087,
      "ĠPr": 2088,
      "ages": 2089,
      "Ġcaught": 2090,
      "oney": 2091,
      "Ġvill": 2092,
      "Ġintere": 2093,
      "Ġtele": 2094,
      "ivers": 2095,
      "Ġturns": 2096,
      "Ġpresent": 2097,
      "struc": 2098,
      "Ġdangerous": 2099,
      "Ġpiece": 2100,
      "Ġinterest": 2101,
      "yal": 2102,
      "Ġben": 2103,
      "Ġmay": 2104,
      "Ġmain": 2105,
      "ories": 2106,
      "Ġform": 2107,
      "eck": 2108,
      "ĠJill": 2109,
      "Ġsmell": 2110,
      "Ġvide": 2111,
      "Ġ198": 2112,
      "Ġeverywhere": 2113,
      "Ġdeep": 2114,
      "Ġlonger": 2115,
      "Ġnearby": 2116,
      "Ġbuilding": 2117,
      "ĠWhile": 2118,
      "Ġseemed": 2119,
      "ipped": 2120,
      "Ġbuck": 2121,
      "Ġbath": 2122,
      "ery": 2123,
      "Ġpock": 2124,
      "Ġpeng": 2125,
      "Ġlunch": 2126,
      "Ġheart": 2127,
      "owing": 2128,
      "ĠInd": 2129,
      "ĠBill": 2130,
      "ĠOct": 2131,
      "Ġwear": 2132,
      "Ġshook": 2133,
      "ended": 2134,
      "Ġdoctor": 2135,
      "ĠJu": 2136,
      "Ġclub": 2137,
      "Ġpoint": 2138,
      "Ġbuilt": 2139,
      "Ġclosed": 2140,
      "Ġfruit": 2141,
      "Ġdropped": 2142,
      "Ġmilit": 2143,
      "Ġhoped": 2144,
      "Ġwords": 2145,
      "Ġmillion": 2146,
      "Ġteacher": 2147,
      "Ġpengu": 2148,
      "gy": 2149,
      "mon": 2150,
      "ober": 2151,
      "port": 2152,
      "Ġest": 2153,
      "Ġbatt": 2154,
      "Ġow": 2155,
      "Ġcir": 2156,
      "Ġdirty": 2157,
      "Ġlate": 2158,
      "ism": 2159,
      "ones": 2160,
      "omin": 2161,
      "Ġthose": 2162,
      "ĠAd": 2163,
      "ural": 2164,
      "Ġ13": 2165,
      "Ġsmart": 2166,
      "Ġarea": 2167,
      "Ġjour": 2168,
      "Ġspe": 2169,
      "ife": 2170,
      "ĠPl": 2171,
      "Ġcave": 2172,
      "ants": 2173,
      "Ġfoot": 2174,
      "Ġgrandma": 2175,
      "Ġdaddy": 2176,
      "Ġappro": 2177,
      "Ġdisapp": 2178,
      "Ġmagic": 2179,
      "Ġamazed": 2180,
      "Ġstepped": 2181,
      "Ġshapes": 2182,
      "ĠAustral": 2183,
      "ĠOctober": 2184,
      "..": 2185,
      "ym": 2186,
      "Ġsince": 2187,
      "erv": 2188,
      "Ġmatch": 2189,
      "ĠSus": 2190,
      "ales": 2191,
      "vern": 2192,
      "ĠLater": 2193,
      "ĠAlex": 2194,
      "Ġlive": 2195,
      "Ġkm": 2196,
      "ĠFor": 2197,
      "ude": 2198,
      "Ġclothes": 2199,
      "Ġvar": 2200,
      "Ġhelping": 2201,
      "Ġrobot": 2202,
      "Ġworried": 2203,
      "aken": 2204,
      "Ġchang": 2205,
      "osed": 2206,
      "Ġ191": 2207,
      "ocked": 2208,
      "Ġtrou": 2209,
      "ĠInside": 2210,
      "Ġcolle": 2211,
      "Ġsongs": 2212,
      "Ġcrying": 2213,
      "Ġbread": 2214,
      "Ġincluded": 2215,
      "ĠDaddy": 2216,
      "Ġpushed": 2217,
      "ĠHowever": 2218,
      "stead": 2219,
      "Ġpocket": 2220,
      "bs": 2221,
      "ex": 2222,
      "Ġtyp": 2223,
      "Ġbug": 2224,
      "erry": 2225,
      "Ġfig": 2226,
      "Ġmoral": 2227,
      "Ġnet": 2228,
      "Ġep": 2229,
      "Ġupset": 2230,
      "Ġann": 2231,
      "Ġbutton": 2232,
      "Ġbody": 2233,
      "oph": 2234,
      "ĠGr": 2235,
      "Ġ193": 2236,
      "orts": 2237,
      "Ġmod": 2238,
      "Ġposs": 2239,
      "ĠKing": 2240,
      "Ġfeels": 2241,
      "ments": 2242,
      "ody": 2243,
      "Ġgives": 2244,
      "Ġreview": 2245,
      "Ġreceived": 2246,
      "Ġreleased": 2247,
      "ĠJuly": 2248,
      "Lily": 2249,
      "cks": 2250,
      "tember": 2251,
      "vious": 2252,
      "Ġ%": 2253,
      "eds": 2254,
      "inal": 2255,
      "reamed": 2256,
      "Ġfing": 2257,
      "Ġcard": 2258,
      "Ġcream": 2259,
      "Ġpat": 2260,
      "Ġpast": 2261,
      "isted": 2262,
      "Ġthrew": 2263,
      "ĠHar": 2264,
      "owed": 2265,
      "Ġrope": 2266,
      "ppy": 2267,
      "ĠOr": 2268,
      "urch": 2269,
      "urric": 2270,
      "Ġnothing": 2271,
      "itty": 2272,
      "ĠWor": 2273,
      "ummer": 2274,
      "Ġspin": 2275,
      "Ġnoises": 2276,
      "andy": 2277,
      "bert": 2278,
      "Ġbecome": 2279,
      "Ġhugs": 2280,
      "Ġprop": 2281,
      "ively": 2282,
      "ivision": 2283,
      "Ġteam": 2284,
      "phy": 2285,
      "Ġfarm": 2286,
      "Ġcommand": 2287,
      "Ġmonkey": 2288,
      "Ġbowl": 2289,
      "Ġconsid": 2290,
      "Ġappeared": 2291,
      "ology": 2292,
      "Ġcandy": 2293,
      "Ġhigher": 2294,
      "ĠSeptember": 2295,
      "Hi": 2296,
      "OK": 2297,
      "Okay": 2298,
      "The": 2299,
      "ces": 2300,
      "rist": 2301,
      "use": 2302,
      "Ġtreat": 2303,
      "Ġaf": 2304,
      "Ġav": 2305,
      "Ġsix": 2306,
      "ining": 2307,
      "Ġfan": 2308,
      "Ġdry": 2309,
      "ature": 2310,
      "Ġhealth": 2311,
      "anks": 2312,
      "Ġgather": 2313,
      "Ġgiant": 2314,
      "Ġnaught": 2315,
      "Ġround": 2316,
      "Ġstuck": 2317,
      "Ġbeg": 2318,
      "ĠJan": 2319,
      "ĠJune": 2320,
      "ĠCar": 2321,
      "Ġ11": 2322,
      "asure": 2323,
      "Ġgoes": 2324,
      "Ġgold": 2325,
      "Ġcloud": 2326,
      "Ġscary": 2327,
      "ĠNo": 2328,
      "aceful": 2329,
      "Ġadv": 2330,
      "augh": 2331,
      "Ġcontro": 2332,
      "Ġattem": 2333,
      "Ġ2010": 2334,
      "Ġserv": 2335,
      "Ġforever": 2336,
      "ĠLeo": 2337,
      "Ġreturn": 2338,
      "Ġcute": 2339,
      "Ġeventually": 2340,
      "Ġcolorful": 2341,
      "ĠAmerican": 2342,
      "Ġnaughty": 2343,
      "iod": 2344,
      "ns": 2345,
      "oot": 2346,
      "ped": 2347,
      "uzz": 2348,
      "Ġ[": 2349,
      "Ġ]": 2350,
      "Ġlab": 2351,
      "anch": 2352,
      "orted": 2353,
      "Ġneck": 2354,
      "ically": 2355,
      "Ġeas": 2356,
      "Ġonto": 2357,
      "ĠMy": 2358,
      "Ġspent": 2359,
      "Ġarm": 2360,
      "Ġworking": 2361,
      "Ġtrack": 2362,
      "Ġflower": 2363,
      "ize": 2364,
      "Ġexplained": 2365,
      "Ġ2012": 2366,
      "Ġfaster": 2367,
      "Ġanimal": 2368,
      "Ġsecret": 2369,
      "TMt": 2370,
      "box": 2371,
      "Ġpassed": 2372,
      "ĠJimmy": 2373,
      "Ġtower": 2374,
      "Ġfurther": 2375,
      "Ġprotect": 2376,
      "Ġcharacter": 2377,
      "Ġhorse": 2378,
      "aughter": 2379,
      "cted": 2380,
      "lish": 2381,
      "nel": 2382,
      "te": 2383,
      "yard": 2384,
      "Ġsang": 2385,
      "Ġfact": 2386,
      "ither": 2387,
      "Ġdeter": 2388,
      "Ġlion": 2389,
      "ĠSouth": 2390,
      "ices": 2391,
      "Ġbee": 2392,
      "ĠAug": 2393,
      "raid": 2394,
      "Ġkiss": 2395,
      "ĠCol": 2396,
      "ĠWill": 2397,
      "Ġgovern": 2398,
      "ĠFred": 2399,
      "ĠPark": 2400,
      "Ġvol": 2401,
      "ists": 2402,
      "ĠGe": 2403,
      "ĠThank": 2404,
      "Ġcompany": 2405,
      "Ġchew": 2406,
      "Ġcheered": 2407,
      "Ġcrit": 2408,
      "Ġ2011": 2409,
      "Ġfarmer": 2410,
      "Ġsounds": 2411,
      "Ġexper": 2412,
      "Ġshoes": 2413,
      "Ġdrove": 2414,
      "gram": 2415,
      "ĠYork": 2416,
      "Ġsystem": 2417,
      "Ġrespect": 2418,
      "Mommy": 2419,
      "Ġrelieved": 2420,
      "Ġwelcome": 2421,
      "Ġproblem": 2422,
      "urricane": 2423,
      "Ġafraid": 2424,
      "ĠAugust": 2425,
      "eal": 2426,
      "ham": 2427,
      "la": 2428,
      "ule": 2429,
      "ying": 2430,
      "Ġer": 2431,
      "Ġtiny": 2432,
      "Ġsil": 2433,
      "Ġsal": 2434,
      "iness": 2435,
      "Ġbark": 2436,
      "Ġbone": 2437,
      "ishing": 2438,
      "isod": 2439,
      "Ġmid": 2440,
      "Ġmach": 2441,
      "Ġmine": 2442,
      "arn": 2443,
      "ested": 2444,
      "Ġgift": 2445,
      "Ġnorth": 2446,
      "acked": 2447,
      "Ġshell": 2448,
      "Ġsold": 2449,
      "Ġshout": 2450,
      "itting": 2451,
      "ume": 2452,
      "Ġ21": 2453,
      "Ġmanag": 2454,
      "ĠNorth": 2455,
      "Ġputs": 2456,
      "Ġcost": 2457,
      "ĠUS": 2458,
      "ĠStates": 2459,
      "Ġcheese": 2460,
      "Ġsaying": 2461,
      "Ġsandw": 2462,
      "Ġmagical": 2463,
      "ground": 2464,
      "Ġspotted": 2465,
      "Ġfairy": 2466,
      "Ġjuice": 2467,
      "iversity": 2468,
      "Ġepisod": 2469,
      "Do": 2470,
      "Hey": 2471,
      "iest": 2472,
      "sw": 2473,
      "Ġself": 2474,
      "Ġsouth": 2475,
      "read": 2476,
      "Ġfence": 2477,
      "itions": 2478,
      "Ġwaited": 2479,
      "Ġmad": 2480,
      "Ġgigg": 2481,
      "Ġinstead": 2482,
      "iment": 2483,
      "irth": 2484,
      "ĠIf": 2485,
      "Ġhist": 2486,
      "llo": 2487,
      "urs": 2488,
      "Ġanc": 2489,
      "roduc": 2490,
      "itten": 2491,
      "Ġsmo": 2492,
      "Ġspr": 2493,
      "Ġalthough": 2494,
      "ĠPh": 2495,
      "ĠPol": 2496,
      "que": 2497,
      "Ġwhole": 2498,
      "ears": 2499,
      "Ġhuge": 2500,
      "Ġsunny": 2501,
      "Ġlaughing": 2502,
      "Ġwrote": 2503,
      "Ġimpress": 2504,
      "ĠChrist": 2505,
      "Ġsinging": 2506,
      "Ġcommun": 2507,
      "Ġmonster": 2508,
      "Ġsquir": 2509,
      "Ġesc": 2510,
      "Ġdescribed": 2511,
      "Ġsuccessful": 2512,
      "Ġvideo": 2513,
      "Ġbucket": 2514,
      "Ġdeterm": 2515,
      "Ben": 2516,
      "de": 2517,
      "fort": 2518,
      "Ġtaken": 2519,
      "Ġsent": 2520,
      "Ġwoman": 2521,
      "inc": 2522,
      "Ġbush": 2523,
      "Ġbirth": 2524,
      "Ġhope": 2525,
      "isa": 2526,
      "Ġmist": 2527,
      "Ġwash": 2528,
      "ĠSome": 2529,
      "Ġnest": 2530,
      "Ġeast": 2531,
      "Ġrequ": 2532,
      "ĠMan": 2533,
      "pper": 2534,
      "Ġwhist": 2535,
      "Ġshirt": 2536,
      "ĠCome": 2537,
      "Ġ24": 2538,
      "ĠNe": 2539,
      "ĠNove": 2540,
      "Ġord": 2541,
      "Ġbrown": 2542,
      "Ġtwirl": 2543,
      "ubb": 2544,
      "Ġdeath": 2545,
      "Ġstring": 2546,
      "Ġexploring": 2547,
      "Ġcompet": 2548,
      "ission": 2549,
      "airs": 2550,
      "Ġwondered": 2551,
      "Ġflying": 2552,
      "Ġcountry": 2553,
      "Ġperformed": 2554,
      "Ġpolice": 2555,
      "Ġwheat": 2556,
      "Ġpenguin": 2557,
      "Ġgovernment": 2558,
      "Ġsquirrel": 2559,
      "ĠNovember": 2560,
      "Come": 2561,
      "aid": 2562,
      "ches": 2563,
      "tal": 2564,
      "yle": 2565,
      "Ġ&": 2566,
      "Ġtank": 2567,
      "Ġsuddenly": 2568,
      "Ġbreat": 2569,
      "Ġfather": 2570,
      "Ġcow": 2571,
      "Ġpig": 2572,
      "Ġmot": 2573,
      "ĠSy": 2574,
      "Ġhalf": 2575,
      "elly": 2576,
      "Ġstra": 2577,
      "unk": 2578,
      "Ġshot": 2579,
      "Ġshore": 2580,
      "Ġang": 2581,
      "Ġhappen": 2582,
      "ĠCo": 2583,
      "Ġspicy": 2584,
      "Ġleaf": 2585,
      "Ġcapt": 2586,
      "Ġstars": 2587,
      "Ġfeed": 2588,
      "Ġpost": 2589,
      "Ġteeth": 2590,
      "ogra": 2591,
      "Ġincre": 2592,
      "ountain": 2593,
      "Ġcheer": 2594,
      "Ġjoke": 2595,
      "Ġpublic": 2596,
      "Ġaddition": 2597,
      "Ġparticular": 2598,
      "Ġhonest": 2599,
      "Ġvillage": 2600,
      "ĠWorld": 2601,
      "ĠJanuary": 2602,
      "ball": 2603,
      "co": 2604,
      "ges": 2605,
      "gest": 2606,
      "ior": 2607,
      "line": 2608,
      "vision": 2609,
      "work": 2610,
      "Ġtest": 2611,
      "Ġtem": 2612,
      "Ġtub": 2613,
      "Ġwra": 2614,
      "Ġwish": 2615,
      "Ġhours": 2616,
      "Ġcou": 2617,
      "Ġpri": 2618,
      "Ġdest": 2619,
      "Ġdem": 2620,
      "Ġdish": 2621,
      "Ġdaughter": 2622,
      "ising": 2623,
      "omp": 2624,
      "ilar": 2625,
      "orrow": 2626,
      "Ġeight": 2627,
      "ĠLisa": 2628,
      "stit": 2629,
      "Ġonce": 2630,
      "Ġstreet": 2631,
      "Ġstories": 2632,
      "ĠAm": 2633,
      "ĠMc": 2634,
      "Ġsoc": 2635,
      "Ġisland": 2636,
      "Ġshort": 2637,
      "ified": 2638,
      "ĠPe": 2639,
      "Ġ25": 2640,
      "ables": 2641,
      "Ġfeat": 2642,
      "Ġprogram": 2643,
      "ĠKitty": 2644,
      "Ġenc": 2645,
      "izz": 2646,
      "Ġperiod": 2647,
      "Ġremind": 2648,
      "Ġwrite": 2649,
      "Ġfinish": 2650,
      "Ġwoke": 2651,
      "Ġmonth": 2652,
      "Ġelev": 2653,
      "Ġelect": 2654,
      "Ġadventures": 2655,
      "Ġlanded": 2656,
      "Ġcraw": 2657,
      "Ġdriver": 2658,
      "ĠFluffy": 2659,
      "Ġdancing": 2660,
      "ĠJenny": 2661,
      "Ġmembers": 2662,
      "Ġminutes": 2663,
      "Ġtrouble": 2664,
      "ĠWilliam": 2665,
      "Of": 2666,
      "St": 2667,
      "den": 2668,
      "ging": 2669,
      "iation": 2670,
      "net": 2671,
      "ract": 2672,
      "sc": 2673,
      "Ġsick": 2674,
      "Ġwide": 2675,
      "ina": 2676,
      "Ġtom": 2677,
      "Ġtouc": 2678,
      "Ġtool": 2679,
      "itive": 2680,
      "Ġwag": 2681,
      "ĠTeddy": 2682,
      "Ġdirt": 2683,
      "Ġlay": 2684,
      "ony": 2685,
      "icked": 2686,
      "ĠAcc": 2687,
      "Ġreve": 2688,
      "cean": 2689,
      "Ġiss": 2690,
      "Ġshy": 2691,
      "Ġplayer": 2692,
      "Ġansw": 2693,
      "uct": 2694,
      "ucet": 2695,
      "ĠJake": 2696,
      "ĠWest": 2697,
      "Ġloves": 2698,
      "Ġjar": 2699,
      "opl": 2700,
      "Ġarms": 2701,
      "ĠRose": 2702,
      "Ġview": 2703,
      "Ġcomb": 2704,
      "osie": 2705,
      "Ġtrad": 2706,
      "Ġswings": 2707,
      "Ġoffered": 2708,
      "Ġanyone": 2709,
      "Ġshows": 2710,
      "Ġfinal": 2711,
      "ÅĵI": 2712,
      "Ġattack": 2713,
      "Ġ2009": 2714,
      "Ġdiff": 2715,
      "Ġwatching": 2716,
      "Ġtrip": 2717,
      "Ġgiven": 2718,
      "Ġaccident": 2719,
      "Ġholding": 2720,
      "Ġtaste": 2721,
      "Ġpublished": 2722,
      "ĠTogether": 2723,
      "Ġweek": 2724,
      "Ġclapped": 2725,
      "ĠEnglish": 2726,
      "Ġengine": 2727,
      "Ġfaucet": 2728,
      "Ġjourney": 2729,
      "Ġhealthy": 2730,
      "Ġattempt": 2731,
      "Sure": 2732,
      "bled": 2733,
      "iol": 2734,
      "lower": 2735,
      "par": 2736,
      "pec": 2737,
      "uce": 2738,
      "Ġtit": 2739,
      "Ġten": 2740,
      "Ġsuff": 2741,
      "Ġsitting": 2742,
      "Ġwest": 2743,
      "ination": 2744,
      "Ġtour": 2745,
      "erc": 2746,
      "Ġfit": 2747,
      "Ġopp": 2748,
      "itch": 2749,
      "Ġcamp": 2750,
      "Ġcele": 2751,
      "Ġ...": 2752,
      "elves": 2753,
      "Ġroute": 2754,
      "Ġstret": 2755,
      "ĠApr": 2756,
      "Ġrelease": 2757,
      "Ġweap": 2758,
      "ucks": 2759,
      "roc": 2760,
      "Ġ14": 2761,
      "Ġ100": 2762,
      "asing": 2763,
      "ĠDuring": 2764,
      "Ġmeans": 2765,
      "osp": 2766,
      "oco": 2767,
      "ocol": 2768,
      "ips": 2769,
      "Ġapples": 2770,
      "ĠBobby": 2771,
      "Ġtries": 2772,
      "Ġcreature": 2773,
      "Ġdrink": 2774,
      "Ġregion": 2775,
      "medi": 2776,
      "Ġsupport": 2777,
      "Ġinfl": 2778,
      "Ġrolled": 2779,
      "ĠGrandma": 2780,
      "Ġwrites": 2781,
      "ĠGeor": 2782,
      "Ġcelebr": 2783,
      "ĠApril": 2784,
      "rit": 2785,
      "rated": 2786,
      "sy": 2787,
      "selves": 2788,
      "Ġsuit": 2789,
      "Ġsoup": 2790,
      "Ġsummer": 2791,
      "Ġtotal": 2792,
      "Ġcur": 2793,
      "Ġled": 2794,
      "Ġlamp": 2795,
      "ense": 2796,
      "ana": 2797,
      "ĠSm": 2798,
      "ĠSoph": 2799,
      "Ġham": 2800,
      "ache": 2801,
      "Ġwithin": 2802,
      "ribut": 2803,
      "Ġsheep": 2804,
      "Ġforget": 2805,
      "Ġwearing": 2806,
      "cember": 2807,
      "Ġshr": 2808,
      "ĠCon": 2809,
      "ills": 2810,
      "ĠFe": 2811,
      "Ġclown": 2812,
      "Ġbackyard": 2813,
      "Ġchange": 2814,
      "reek": 2815,
      "Ġfeet": 2816,
      "Ġfeather": 2817,
      "Ġcarry": 2818,
      "Ġcarrot": 2819,
      "Ġorder": 2820,
      "Ġseek": 2821,
      "Ġbring": 2822,
      "Ġproject": 2823,
      "Ġimag": 2824,
      "ĠâĢĻ": 2825,
      "rench": 2826,
      "Ġcloset": 2827,
      "Ġmetal": 2828,
      "uitar": 2829,
      "Ġcreated": 2830,
      "Ġpretended": 2831,
      "Ġmarket": 2832,
      "ĠDecember": 2833,
      "Ġsimilar": 2834,
      "Ġcrayon": 2835,
      "Ġbottle": 2836,
      "Ġancient": 2837,
      "ĠAccording": 2838,
      "Ġdiffic": 2839,
      "cles": 2840,
      "hod": 2841,
      "lies": 2842,
      "most": 2843,
      "now": 2844,
      "ser": 2845,
      "vely": 2846,
      "ys": 2847,
      "Ġvers": 2848,
      "Ġap": 2849,
      "Ġsell": 2850,
      "Ġble": 2851,
      "Ġhous": 2852,
      "Ġcage": 2853,
      "Ġcries": 2854,
      "Ġmind": 2855,
      "Ġmoney": 2856,
      "ars": 2857,
      "ato": 2858,
      "ĠSe": 2859,
      "uter": 2860,
      "elp": 2861,
      "stal": 2862,
      "ĠBar": 2863,
      "ently": 2864,
      "ention": 2865,
      "Ġformer": 2866,
      "semb": 2867,
      "urg": 2868,
      "ĠCount": 2869,
      "Ġlog": 2870,
      "Ġloyal": 2871,
      "ĠDon": 2872,
      "ĠDan": 2873,
      "Ġspoon": 2874,
      "ĠFo": 2875,
      "ĠEur": 2876,
      "Ġlevel": 2877,
      "Ġcap": 2878,
      "Ġhelpful": 2879,
      "Ġrocks": 2880,
      "ape": 2881,
      "Ġgrump": 2882,
      "Ġmoon": 2883,
      "Ġquest": 2884,
      "Ġneeds": 2885,
      "Ġapple": 2886,
      "Ġparts": 2887,
      "ailable": 2888,
      "Ġresult": 2889,
      "Ġ2008": 2890,
      "Ġfireman": 2891,
      "iety": 2892,
      "ĠReg": 2893,
      "Ġmilk": 2894,
      "Ġmiles": 2895,
      "Ġfixed": 2896,
      "Ġlocal": 2897,
      "Ġswimming": 2898,
      "Ġproduced": 2899,
      "Ġbusy": 2900,
      "Ġoriginal": 2901,
      "Ġinteresting": 2902,
      "Ġchanged": 2903,
      "Ġclouds": 2904,
      "ĠChristian": 2905,
      "ocolate": 2906,
      "Ġdifficult": 2907,
      "corn": 2908,
      "ler": 2909,
      "nes": 2910,
      "tain": 2911,
      "tons": 2912,
      "uel": 2913,
      "ĠX": 2914,
      "head": 2915,
      "Ġtun": 2916,
      "Ġaer": 2917,
      "Ġson": 2918,
      "edic": 2919,
      "Ġban": 2920,
      "Ġbased": 2921,
      "Ġbatter": 2922,
      "Ġwave": 2923,
      "ĠTw": 2924,
      "Ġpra": 2925,
      "Ġpup": 2926,
      "Ġpuzz": 2927,
      "Ġdue": 2928,
      "Ġlon": 2929,
      "Ġlow": 2930,
      "arch": 2931,
      "ata": 2932,
      "ille": 2933,
      "ĠThese": 2934,
      "ĠSomet": 2935,
      "Ġthird": 2936,
      "Ġequ": 2937,
      "Ġhero": 2938,
      "ĠAct": 2939,
      "ĠMe": 2940,
      "pping": 2941,
      "raft": 2942,
      "ĠCor": 2943,
      "ĠCent": 2944,
      "Ġsepar": 2945,
      "ument": 2946,
      "ashed": 2947,
      "olf": 2948,
      "Ġjud": 2949,
      "ĠDar": 2950,
      "Ġalmost": 2951,
      "ague": 2952,
      "Ġcann": 2953,
      "Ġcloth": 2954,
      "Ġhelm": 2955,
      "Ġconstruc": 2956,
      "Ġchocolate": 2957,
      "Ġprevious": 2958,
      "Ġbranch": 2959,
      "Ġflood": 2960,
      "Ġmyster": 2961,
      "ffic": 2962,
      "Ġhowever": 2963,
      "ensive": 2964,
      "Ġcommon": 2965,
      "Ġtreasure": 2966,
      "Ġcookie": 2967,
      "Ġdiscover": 2968,
      "Ġplants": 2969,
      "Ġmissed": 2970,
      "Ġhiding": 2971,
      "ĠComm": 2972,
      "ĠComp": 2973,
      "Ġdanced": 2974,
      "Ġespec": 2975,
      "Ġhuman": 2976,
      "asket": 2977,
      "Ġeffect": 2978,
      "Ġbelonged": 2979,
      "Ġmilitary": 2980,
      "Ġconsidered": 2981,
      "Ġtouched": 2982,
      "Ġaccidentally": 2983,
      "ĠSophie": 2984,
      "Ġlonely": 2985,
      "Ġespecially": 2986,
      "Good": 2987,
      "eb": 2988,
      "Ġtie": 2989,
      "Ġauth": 2990,
      "Ġwings": 2991,
      "rey": 2992,
      "ern": 2993,
      "erp": 2994,
      "Ġpen": 2995,
      "Ġpay": 2996,
      "Ġport": 2997,
      "Ġpush": 2998,
      "isk": 2999,
      "Ġhello": 3000,
      "Ġgrew": 3001,
      "Ġins": 3002,
      "aled": 3003,
      "Ġeither": 3004,
      "ĠII": 3005,
      "ĠBest": 3006,
      "Ġru": 3007,
      "Ġrub": 3008,
      "Ġstone": 3009,
      "Ġstated": 3010,
      "Ġsticks": 3011,
      "ĠAwards": 3012,
      "ĠMal": 3013,
      "ĠMus": 3014,
      "Ġplaced": 3015,
      "echn": 3016,
      "ĠCity": 3017,
      "ases": 3018,
      "Ġjew": 3019,
      "iff": 3020,
      "ĠFrench": 3021,
      "ĠEven": 3022,
      "Ġknocked": 3023,
      "Ġscen": 3024,
      "Ġscreen": 3025,
      "Ġscoot": 3026,
      "ĠGo": 3027,
      "Ġprince": 3028,
      "Ġcarried": 3029,
      "Ġ192": 3030,
      "Ġwhenever": 3031,
      "Ġintroduc": 3032,
      "Ġmoder": 3033,
      "Ġcond": 3034,
      "Ġswam": 3035,
      "ĠSammy": 3036,
      "Ġspecies": 3037,
      "Ġimmedi": 3038,
      "Ġusing": 3039,
      "ĠEverywhere": 3040,
      "Ġcrown": 3041,
      "ancy": 3042,
      "Ġearl": 3043,
      "Ġtells": 3044,
      "Ġtelling": 3045,
      "ĠUniversity": 3046,
      "ertain": 3047,
      "Ġpromise": 3048,
      "shine": 3049,
      "Ġdrive": 3050,
      "Ġfighting": 3051,
      "Ġpopcorn": 3052,
      "ĠMarch": 3053,
      "Ġphone": 3054,
      "Ġsnowman": 3055,
      "Ġveget": 3056,
      "Ġcorner": 3057,
      "Ġsuggested": 3058,
      "Ġtelevision": 3059,
      "Ġfigure": 3060,
      "ospital": 3061,
      "ĠEurope": 3062,
      "Ġgrumpy": 3063,
      "Ġaeropl": 3064,
      "Ġscooter": 3065,
      "light": 3066,
      "ror": 3067,
      "Ġtimes": 3068,
      "Ġsour": 3069,
      "Ġwip": 3070,
      "ering": 3071,
      "Ġfail": 3072,
      "Ġfaces": 3073,
      "Ġcere": 3074,
      "ĠTob": 3075,
      "ĠTod": 3076,
      "Ġpizz": 3077,
      "Ġdet": 3078,
      "Ġdam": 3079,
      "Ġla": 3080,
      "Ġmis": 3081,
      "Ġmud": 3082,
      "Ġinit": 3083,
      "alk": 3084,
      "Ġthick": 3085,
      "Ġemb": 3086,
      "aches": 3087,
      "stant": 3088,
      "ĠBaby": 3089,
      "Ġrough": 3090,
      "Ġrail": 3091,
      "Ġforward": 3092,
      "Ġweak": 3093,
      "llie": 3094,
      "ceed": 3095,
      "Ġshop": 3096,
      "Ġking": 3097,
      "ĠCat": 3098,
      "Ġareas": 3099,
      "Ġboss": 3100,
      "Ġalarm": 3101,
      "ests": 3102,
      "Ġcase": 3103,
      "Ġ28": 3104,
      "Ġrole": 3105,
      "Ġchased": 3106,
      "Ġbridge": 3107,
      "Ġtrue": 3108,
      "Ġdefe": 3109,
      "Ġitself": 3110,
      "Ġpeaceful": 3111,
      "Ġevents": 3112,
      "Ġsunshine": 3113,
      "Ġamong": 3114,
      "oyal": 3115,
      "Ġcomplet": 3116,
      "Ġwriting": 3117,
      "Ġimpro": 3118,
      "Ġsnack": 3119,
      "Ġinclude": 3120,
      "Ġdolls": 3121,
      "Ġgiving": 3122,
      "Ġstudents": 3123,
      "Ġgenerous": 3124,
      "Ġrespons": 3125,
      "Ġextra": 3126,
      "Ġbench": 3127,
      "ĠSusan": 3128,
      "Ġfinger": 3129,
      "Ġpatient": 3130,
      "Ġavailable": 3131,
      "Ġcontrol": 3132,
      "Ġservice": 3133,
      "Ġdetermined": 3134,
      "Ġbirthday": 3135,
      "Ġelevator": 3136,
      "Ġaeroplane": 3137,
      "Here": 3138,
      "aur": 3139,
      "aks": 3140,
      "com": 3141,
      "can": 3142,
      "ev": 3143,
      "lant": 3144,
      "nal": 3145,
      "nic": 3146,
      "Ġtick": 3147,
      "Ġaward": 3148,
      "Ġwore": 3149,
      "Ġbought": 3150,
      "Ġfut": 3151,
      "Ġoven": 3152,
      "Ġcor": 3153,
      "Ġcop": 3154,
      "ĠTe": 3155,
      "Ġpers": 3156,
      "Ġpour": 3157,
      "Ġpudd": 3158,
      "Ġdi": 3159,
      "Ġdig": 3160,
      "Ġducks": 3161,
      "Ġlim": 3162,
      "Ġlucky": 3163,
      "Ġmember": 3164,
      "Ġmult": 3165,
      "Ġmaybe": 3166,
      "Ġmatter": 3167,
      "arra": 3168,
      "Ġgate": 3169,
      "imed": 3170,
      "imately": 3171,
      "Ġsaf": 3172,
      "ĠLittle": 3173,
      "Ġstyle": 3174,
      "oof": 3175,
      "ĠMag": 3176,
      "Ġplane": 3177,
      "Ġplaces": 3178,
      "ional": 3179,
      "Ġnoted": 3180,
      "ucture": 3181,
      "roy": 3182,
      "Ġseat": 3183,
      "Ġseven": 3184,
      "Ġbiggest": 3185,
      "Ġboard": 3186,
      "Ġexam": 3187,
      "Ġjog": 3188,
      "Ġarg": 3189,
      "ĠFin": 3190,
      "ĠPar": 3191,
      "ĠPro": 3192,
      "ĠEd": 3193,
      "ĠRed": 3194,
      "ĠRob": 3195,
      "ĠRiver": 3196,
      "Ġviol": 3197,
      "Ġscr": 3198,
      "Ġworks": 3199,
      "aps": 3200,
      "Ġexciting": 3201,
      "Ġblank": 3202,
      "Ġcoins": 3203,
      "icha": 3204,
      "uddy": 3205,
      "ection": 3206,
      "Ġstructure": 3207,
      "ĠState": 3208,
      "Ġsmaller": 3209,
      "Ġteach": 3210,
      "ĠJohnny": 3211,
      "aterial": 3212,
      "uper": 3213,
      "Ġjumping": 3214,
      "Ġtravel": 3215,
      "Ġletter": 3216,
      "ĠAlthough": 3217,
      "Ġtalking": 3218,
      "Ġsigns": 3219,
      "Ġobser": 3220,
      "Ġships": 3221,
      "Ġtasty": 3222,
      "Ġdistance": 3223,
      "ĠRoad": 3224,
      "Ġcreate": 3225,
      "ungle": 3226,
      "Ġdirect": 3227,
      "Ġestab": 3228,
      "Ġbattle": 3229,
      "Ġneckl": 3230,
      "Ġmachine": 3231,
      "Ġsandwich": 3232,
      "Ġcouch": 3233,
      "Stop": 3234,
      "Ġinflu": 3235,
      "Ġimmediately": 3236,
      "ĠToday": 3237,
      "Tom": 3238,
      "cl": 3239,
      "eon": 3240,
      "face": 3241,
      "ho": 3242,
      "min": 3243,
      "ointed": 3244,
      "por": 3245,
      "Ġign": 3246,
      "heast": 3247,
      "Ġtax": 3248,
      "Ġbasket": 3249,
      "Ġhang": 3250,
      "Ġharm": 3251,
      "Ġhospital": 3252,
      "err": 3253,
      "eral": 3254,
      "ishes": 3255,
      "Ġmel": 3256,
      "Ġmail": 3257,
      "Ġmountain": 3258,
      "onom": 3259,
      "omb": 3260,
      "ester": 3261,
      "ĠSnow": 3262,
      "Ġgym": 3263,
      "Ġguitar": 3264,
      "ida": 3265,
      "Ġnon": 3266,
      "ality": 3267,
      "ots": 3268,
      "Ġstren": 3269,
      "ĠAb": 3270,
      "ĠAg": 3271,
      "ĠMon": 3272,
      "ĠMad": 3273,
      "ĠMandy": 3274,
      "Ġshelf": 3275,
      "ending": 3276,
      "endent": 3277,
      "rag": 3278,
      "rophy": 3279,
      "Ġneigh": 3280,
      "ĠJe": 3281,
      "ĠJames": 3282,
      "Ġbuttons": 3283,
      "illar": 3284,
      "aining": 3285,
      "Ġjungle": 3286,
      "Ġthemselves": 3287,
      "ager": 3288,
      "ĠEx": 3289,
      "ĠRich": 3290,
      "ĠRoyal": 3291,
      "Ġworm": 3292,
      "Ġcomment": 3293,
      "Ġchurch": 3294,
      "Ġprim": 3295,
      "Ġpoor": 3296,
      "Ġpoem": 3297,
      "Ġprof": 3298,
      "ivid": 3299,
      "ĠKarl": 3300,
      "Ġdebut": 3301,
      "ĠStreet": 3302,
      "Ġcaterp": 3303,
      "Ġballoon": 3304,
      "Ġunl": 3305,
      "Ġcomputer": 3306,
      "Ġcalling": 3307,
      "Ġglass": 3308,
      "Ġthroughout": 3309,
      "Ġ2007": 3310,
      "Ġjoined": 3311,
      "ĠArt": 3312,
      "Ġ80": 3313,
      "Ġstudio": 3314,
      "Ġdiscuss": 3315,
      "Ġtowel": 3316,
      "Ġhidden": 3317,
      "Ġshape": 3318,
      "Ġconfused": 3319,
      "ences": 3320,
      "Ġcalm": 3321,
      "Ġsplash": 3322,
      "Ġsplashed": 3323,
      "Ġempt": 3324,
      "ĠTweety": 3325,
      "Ġsparkly": 3326,
      "Ġpractice": 3327,
      "ĠQu": 3328,
      "ĠQue": 3329,
      "Ġdisappear": 3330,
      "ĠAustralia": 3331,
      "Ġvarious": 3332,
      "Ġnetwork": 3333,
      "Ġepisode": 3334,
      "Ġwhistle": 3335,
      "Ġtradition": 3336,
      "ĠGeorge": 3337,
      "Ġhouses": 3338,
      "Ġmodern": 3339,
      "Ġbossy": 3340,
      "Ġfuture": 3341,
      "Ġstreng": 3342,
      "ai": 3343,
      "aked": 3344,
      "aul": 3345,
      "dle": 3346,
      "een": 3347,
      "hi": 3348,
      "ique": 3349,
      "ls": 3350,
      "pack": 3351,
      "rd": 3352,
      "Ġtaught": 3353,
      "Ġaff": 3354,
      "ready": 3355,
      "Ġbi": 3356,
      "Ġbat": 3357,
      "Ġbump": 3358,
      "Ġfill": 3359,
      "itement": 3360,
      "Ġcell": 3361,
      "Ġpil": 3362,
      "Ġpill": 3363,
      "Ġdiam": 3364,
      "anes": 3365,
      "ilty": 3366,
      "ĠSil": 3367,
      "Ġnut": 3368,
      "ĠHill": 3369,
      "ĠHigh": 3370,
      "lect": 3371,
      "ĠBatt": 3372,
      "Ġstep": 3373,
      "ada": 3374,
      "ades": 3375,
      "adow": 3376,
      "ĠAir": 3377,
      "sequ": 3378,
      "Ġwhale": 3379,
      "ĠCap": 3380,
      "Ġseeds": 3381,
      "ĠWhy": 3382,
      "Ġlock": 3383,
      "Ġlovely": 3384,
      "Ġloop": 3385,
      "ĠDes": 3386,
      "ĠDav": 3387,
      "Ġspace": 3388,
      "Ġalready": 3389,
      "ĠPen": 3390,
      "Ġallowed": 3391,
      "ĠRoute": 3392,
      "Ġ26": 3393,
      "Ġvase": 3394,
      "Ġnose": 3395,
      "Ġscreamed": 3396,
      "ĠGod": 3397,
      "ĠNor": 3398,
      "ĠNational": 3399,
      "Ġprep": 3400,
      "Ġexcitement": 3401,
      "ival": 3402,
      "Ġcoin": 3403,
      "Ġcoast": 3404,
      "Ġadded": 3405,
      "Ġdeer": 3406,
      "Ġoffice": 3407,
      "Ġener": 3408,
      "Ġpicnic": 3409,
      "Ġcolours": 3410,
      "ighter": 3411,
      "Ġ30": 3412,
      "ogn": 3413,
      "Ġaftern": 3414,
      "Ġclear": 3415,
      "Ġclever": 3416,
      "Ġtraffic": 3417,
      "Ġrelig": 3418,
      "ĠAtlant": 3419,
      "Ġrecogn": 3420,
      "ĠBrown": 3421,
      "Ġdelight": 3422,
      "bruary": 3423,
      "Ġpresident": 3424,
      "ĠEmily": 3425,
      "Ġrepres": 3426,
      "Ġzoom": 3427,
      "Ġguilty": 3428,
      "Ġregular": 3429,
      "Ġforgive": 3430,
      "Ġperformance": 3431,
      "Ġobject": 3432,
      "Ġlegs": 3433,
      "Ġpopul": 3434,
      "ĠRobert": 3435,
      "Ġsleepy": 3436,
      "Ġproduction": 3437,
      "Ġweeks": 3438,
      "Ġprovided": 3439,
      "Ġoccur": 3440,
      "ropical": 3441,
      "Ġpoints": 3442,
      "Ġselfish": 3443,
      "Ġhistory": 3444,
      "Ġangel": 3445,
      "ĠSmith": 3446,
      "ĠFebruary": 3447,
      "Ġversion": 3448,
      "ĠSometimes": 3449,
      "Ġvegetables": 3450,
      "Ġpizza": 3451,
      "Ġblanket": 3452,
      "Ġneighb": 3453,
      "My": 3454,
      "aff": 3455,
      "burg": 3456,
      "field": 3457,
      "hin": 3458,
      "men": 3459,
      "nown": 3460,
      "pted": 3461,
      "rang": 3462,
      "val": 3463,
      "viet": 3464,
      "zer": 3465,
      "hest": 3466,
      "Ġtanks": 3467,
      "Ġtechn": 3468,
      "Ġaut": 3469,
      "Ġsite": 3470,
      "Ġwise": 3471,
      "Ġwire": 3472,
      "Ġwife": 3473,
      "reg": 3474,
      "Ġtoug": 3475,
      "Ġhurricane": 3476,
      "erred": 3477,
      "Ġfem": 3478,
      "Ġocean": 3479,
      "Ġcrew": 3480,
      "Ġpal": 3481,
      "Ġpian": 3482,
      "Ġpool": 3483,
      "Ġlines": 3484,
      "Ġmass": 3485,
      "Ġmaterial": 3486,
      "atin": 3487,
      "omes": 3488,
      "ĠSoc": 3489,
      "Ġhall": 3490,
      "aling": 3491,
      "alif": 3492,
      "Ġthreat": 3493,
      "ĠLu": 3494,
      "acing": 3495,
      "ighed": 3496,
      "ĠInt": 3497,
      "ĠBra": 3498,
      "ĠBell": 3499,
      "Ġring": 3500,
      "Ġrad": 3501,
      "Ġrul": 3502,
      "Ġrug": 3503,
      "Ġrhy": 3504,
      "Ġroof": 3505,
      "Ġstri": 3506,
      "Ġyarn": 3507,
      "ĠMin": 3508,
      "Ġplate": 3509,
      "Ġash": 3510,
      "Ġshining": 3511,
      "asc": 3512,
      "oles": 3513,
      "olution": 3514,
      "ĠDivision": 3515,
      "ĠPres": 3516,
      "ĠPeter": 3517,
      "ĠEllie": 3518,
      "ĠRes": 3519,
      "ĠRep": 3520,
      "Ġvoc": 3521,
      "Ġnovel": 3522,
      "istic": 3523,
      "Ġscrew": 3524,
      "astic": 3525,
      "ustrated": 3526,
      "Ġchair": 3527,
      "Ġorange": 3528,
      "Ġflag": 3529,
      "Ġdead": 3530,
      "Ġspecific": 3531,
      "Ġpepper": 3532,
      "ĠSoviet": 3533,
      "ĠStar": 3534,
      "Ġhose": 3535,
      "Ġcolour": 3536,
      "Ġremained": 3537,
      "Ġskipped": 3538,
      "Ġwritten": 3539,
      "ances": 3540,
      "upid": 3541,
      "Ġsnacks": 3542,
      "aws": 3543,
      "Ġbehav": 3544,
      "Ġeye": 3545,
      "Ġactiv": 3546,
      "Ġyelled": 3547,
      "Ġunderstood": 3548,
      "Ġairc": 3549,
      "Ġmixer": 3550,
      "Ġbarn": 3551,
      "ounced": 3552,
      "Ġposition": 3553,
      "Ġliter": 3554,
      "Ġcrayons": 3555,
      "ĠAustralian": 3556,
      "Ġpossible": 3557,
      "Ġparticularly": 3558,
      "Ġdestroy": 3559,
      "Ġbattery": 3560,
      "Ġnecklace": 3561,
      "Ġcaterpillar": 3562,
      "Ġempty": 3563,
      "ĠAtlantic": 3564,
      "BC": 3565,
      "cast": 3566,
      "gg": 3567,
      "gie": 3568,
      "hic": 3569,
      "house": 3570,
      "nie": 3571,
      "oons": 3572,
      "pes": 3573,
      "ru": 3574,
      "round": 3575,
      "ts": 3576,
      "Ġ!": 3577,
      "ĠÂ": 3578,
      "Ġtid": 3579,
      "Ġtag": 3580,
      "Ġaver": 3581,
      "Ġwool": 3582,
      "inting": 3583,
      "rest": 3584,
      "Ġboring": 3585,
      "Ġhorn": 3586,
      "era": 3587,
      "Ġfed": 3588,
      "Ġox": 3589,
      "Ġwake": 3590,
      "Ġcudd": 3591,
      "Ġpath": 3592,
      "Ġphy": 3593,
      "Ġdate": 3594,
      "Ġdough": 3595,
      "Ġdivision": 3596,
      "Ġlower": 3597,
      "Ġmule": 3598,
      "atic": 3599,
      "omm": 3600,
      "anish": 3601,
      "orable": 3602,
      "ĠSim": 3603,
      "Ġnavy": 3604,
      "Ġinstr": 3605,
      "imi": 3606,
      "oop": 3607,
      "oose": 3608,
      "Ġyog": 3609,
      "ads": 3610,
      "aded": 3611,
      "Ġreward": 3612,
      "Ġreason": 3613,
      "Ġsharing": 3614,
      "Ġseal": 3615,
      "olved": 3616,
      "Ġarrang": 3617,
      "ĠPolly": 3618,
      "thm": 3619,
      "ĠRock": 3620,
      "Ġ23": 3621,
      "Ġvine": 3622,
      "Ġscream": 3623,
      "ability": 3624,
      "ssed": 3625,
      "Ġcomfort": 3626,
      "Ġage": 3627,
      "Ġmeant": 3628,
      "Ġ190": 3629,
      "Ġnewsp": 3630,
      "Ġbrill": 3631,
      "Ġbrush": 3632,
      "artment": 3633,
      "aven": 3634,
      "angu": 3635,
      "Ġgets": 3636,
      "Ġpicks": 3637,
      "Ġgrand": 3638,
      "Ġstrang": 3639,
      "Ġcontent": 3640,
      "Ġexplored": 3641,
      "Ġamb": 3642,
      "Ġaccept": 3643,
      "Ġunus": 3644,
      "Ġcrow": 3645,
      "ĠChamp": 3646,
      "Ġheaded": 3647,
      "Ġresul": 3648,
      "rence": 3649,
      "azine": 3650,
      "Ġ45": 3651,
      "Ġsett": 3652,
      "Ġbedroom": 3653,
      "Ġreplaced": 3654,
      "Ġeleph": 3655,
      "Ġdeliver": 3656,
      "Ġdrum": 3657,
      "Ġhears": 3658,
      "Ġcrab": 3659,
      "Ġzoo": 3660,
      "Ġdisco": 3661,
      "Ġindivid": 3662,
      "Ġinvited": 3663,
      "ency": 3664,
      "Ġgently": 3665,
      "Ġdreams": 3666,
      "Ġmixed": 3667,
      "ĠBlack": 3668,
      "Ġsolve": 3669,
      "Ġoriginally": 3670,
      "ĠGrand": 3671,
      "Ġspoke": 3672,
      "Ġdevelopment": 3673,
      "Ġcircle": 3674,
      "Ġbugs": 3675,
      "useum": 3676,
      "Ġbegin": 3677,
      "Ġeasy": 3678,
      "Ġvolcan": 3679,
      "Ġsmoke": 3680,
      "Ġcheerful": 3681,
      "ĠMcC": 3682,
      "Ġmonths": 3683,
      "Ġhammer": 3684,
      "Ġpuzzle": 3685,
      "Ġseparate": 3686,
      "Ġcannot": 3687,
      "Ġmysterious": 3688,
      "ĠMusic": 3689,
      "Ġembarra": 3690,
      "Ġtaxi": 3691,
      "ĠQueen": 3692,
      "Ġembarrassed": 3693,
      "cent": 3694,
      "cul": 3695,
      "dom": 3696,
      "ga": 3697,
      "han": 3698,
      "oe": 3699,
      "ring": 3700,
      "ration": 3701,
      "yl": 3702,
      "Ġill": 3703,
      "hester": 3704,
      "Ġturt": 3705,
      "Ġtrophy": 3706,
      "Ġaw": 3707,
      "Ġaunt": 3708,
      "Ġwid": 3709,
      "inct": 3710,
      "Ġtor": 3711,
      "Ġcul": 3712,
      "oura": 3713,
      "Ġple": 3714,
      "Ġpir": 3715,
      "Ġpile": 3716,
      "Ġden": 3717,
      "Ġmat": 3718,
      "arp": 3719,
      "onic": 3720,
      "ils": 3721,
      "ilet": 3722,
      "Ġgar": 3723,
      "iding": 3724,
      "Ġnat": 3725,
      "Ġnav": 3726,
      "Ġnail": 3727,
      "Ġsave": 3728,
      "ĠHouse": 3729,
      "ute": 3730,
      "Ġeager": 3731,
      "Ġrude": 3732,
      "Ġstood": 3733,
      "Ġstupid": 3734,
      "adium": 3735,
      "ĠAre": 3736,
      "ĠAnt": 3737,
      "keep": 3738,
      "ĠMill": 3739,
      "ĠMicha": 3740,
      "Ġformed": 3741,
      "Ġsoap": 3742,
      "Ġasleep": 3743,
      "Ġplayground": 3744,
      "Ġlibr": 3745,
      "Ġdol": 3746,
      "robe": 3747,
      "Ġkick": 3748,
      "Ġjeal": 3749,
      "Ġspread": 3750,
      "usion": 3751,
      "ushed": 3752,
      "estig": 3753,
      "Ġsmiling": 3754,
      "anded": 3755,
      "Ġscatter": 3756,
      "Ġrode": 3757,
      "ably": 3758,
      "Ġconn": 3759,
      "antly": 3760,
      "Ġprocess": 3761,
      "iving": 3762,
      "ĠKore": 3763,
      "Ġcoat": 3764,
      "ption": 3765,
      "ĠUp": 3766,
      "Ġunit": 3767,
      "Ġcomple": 3768,
      "Ġskin": 3769,
      "Ġattention": 3770,
      "Ġ2006": 3771,
      "Ġ2013": 3772,
      "Ġ187": 3773,
      "lands": 3774,
      "Ġjokes": 3775,
      "ĠLeague": 3776,
      "Ġaction": 3777,
      "Ġwaiting": 3778,
      "Ġpainted": 3779,
      "ĠRex": 3780,
      "Ġtalked": 3781,
      "Ġthinking": 3782,
      "ublic": 3783,
      "Ġfavour": 3784,
      "Ġsignific": 3785,
      "Ġindep": 3786,
      "Ġbusiness": 3787,
      "Ġfurry": 3788,
      "Ġmustache": 3789,
      "Ġtightly": 3790,
      "Ġ1970": 3791,
      "Ġpressure": 3792,
      "Ġorganized": 3793,
      "Ġeduc": 3794,
      "Ġclaim": 3795,
      "Ġjuicy": 3796,
      "Ġvalue": 3797,
      "Ġspoil": 3798,
      "Ġgeneral": 3799,
      "Ġpowerful": 3800,
      "Ġbalance": 3801,
      "Ġsmelled": 3802,
      "Ġtype": 3803,
      "Ġgathered": 3804,
      "Ġgiggled": 3805,
      "ĠPhil": 3806,
      "Ġimpressed": 3807,
      "Ġcommunity": 3808,
      "Ġordered": 3809,
      "stitution": 3810,
      "Ġtomorrow": 3811,
      "Ġweapons": 3812,
      "ĠCounty": 3813,
      "Ġpraised": 3814,
      "Ġcomplete": 3815,
      "Ġestabl": 3816,
      "ĠSnowy": 3817,
      "Ġdisappeared": 3818,
      "Ġafternoon": 3819,
      "Ġpiano": 3820,
      "Ġrhythm": 3821,
      "Ġaircraft": 3822,
      "Ġphys": 3823,
      "Ġbrilliant": 3824,
      "anguage": 3825,
      "Ġturtle": 3826,
      "Ġjealous": 3827,
      "bes": 3828,
      "for": 3829,
      "form": 3830,
      "known": 3831,
      "mar": 3832,
      "och": 3833,
      "pite": 3834,
      "va": 3835,
      "yn": 3836,
      "Ġeld": 3837,
      "Ġtears": 3838,
      "Ġsout": 3839,
      "Ġsudden": 3840,
      "Ġsigned": 3841,
      "Ġsighed": 3842,
      "Ġwild": 3843,
      "Ġwitch": 3844,
      "inking": 3845,
      "Ġbul": 3846,
      "Ġbaking": 3847,
      "Ġburned": 3848,
      "Ġbored": 3849,
      "Ġfat": 3850,
      "Ġfund": 3851,
      "Ġfrag": 3852,
      "iture": 3853,
      "Ġcoco": 3854,
      "Ġpin": 3855,
      "Ġdrew": 3856,
      "Ġdreamed": 3857,
      "Ġdata": 3858,
      "Ġmed": 3859,
      "Ġmap": 3860,
      "orian": 3861,
      "ĠSir": 3862,
      "ĠSun": 3863,
      "Ġgas": 3864,
      "idence": 3865,
      "Ġnorm": 3866,
      "Ġnational": 3867,
      "Ġnomin": 3868,
      "Ġinj": 3869,
      "ĠHen": 3870,
      "ĠHall": 3871,
      "ico": 3872,
      "ĠBuddy": 3873,
      "Ġstamp": 3874,
      "ential": 3875,
      "ĠAss": 3876,
      "ĠMed": 3877,
      "ĠOver": 3878,
      "rial": 3879,
      "riage": 3880,
      "sect": 3881,
      "urb": 3882,
      "Ġasking": 3883,
      "Ġmoms": 3884,
      "itted": 3885,
      "ĠCam": 3886,
      "ĠIts": 3887,
      "Ġsmelly": 3888,
      "ĠDep": 3889,
      "ifted": 3890,
      "ĠPer": 3891,
      "Ġcaus": 3892,
      "Ġcable": 3893,
      "ĠRec": 3894,
      "ĠRoman": 3895,
      "emo": 3896,
      "ander": 3897,
      "istent": 3898,
      "Ġcommer": 3899,
      "ĠGu": 3900,
      "Ġchase": 3901,
      "Ġchose": 3902,
      "ĠNemo": 3903,
      "Ġprevent": 3904,
      "ocr": 3905,
      "ociation": 3906,
      "ĠYour": 3907,
      "Ġbrace": 3908,
      "Ġbranc": 3909,
      "Ġtrust": 3910,
      "Ġmov": 3911,
      "Ġpoll": 3912,
      "Ġproper": 3913,
      "Ġcoll": 3914,
      "Ġfold": 3915,
      "ĠSte": 3916,
      "Ġquite": 3917,
      "Ġaccess": 3918,
      "Ġunknown": 3919,
      "Ġ31": 3920,
      "Ġsurface": 3921,
      "Ġshoulder": 3922,
      "Ġcleaned": 3923,
      "Ġ2004": 3924,
      "Ġ2014": 3925,
      "Ġserious": 3926,
      "Ġbroad": 3927,
      "Ġcrystal": 3928,
      "Ġ50": 3929,
      "Ġ186": 3930,
      "Ġ188": 3931,
      "ĠLee": 3932,
      "Ġpainting": 3933,
      "Ġmusician": 3934,
      "Ġenter": 3935,
      "Ġentire": 3936,
      "eez": 3937,
      "Ġbrothers": 3938,
      "Ġmarch": 3939,
      "Ġlocated": 3940,
      "appy": 3941,
      "Ġtasted": 3942,
      "Ġcourt": 3943,
      "enced": 3944,
      "Ġrefused": 3945,
      "Ġ1960": 3946,
      "Ġcandle": 3947,
      "Ġrecorded": 3948,
      "Ġwalls": 3949,
      "arliam": 3950,
      "Ġvehic": 3951,
      "Ġpressed": 3952,
      "Ġparrot": 3953,
      "Ġedge": 3954,
      "ĠTrue": 3955,
      "Ġofficers": 3956,
      "Ġgenerally": 3957,
      "Ġmeeting": 3958,
      "Ġbald": 3959,
      "ĠSusie": 3960,
      "Ġannounced": 3961,
      "ĠGrace": 3962,
      "Ġtreats": 3963,
      "Ġexperience": 3964,
      "Ġsilver": 3965,
      "Ġsalad": 3966,
      "Ġbarking": 3967,
      "Ġmanaged": 3968,
      "Ġtwirled": 3969,
      "Ġanswered": 3970,
      "rocod": 3971,
      "ĠFollow": 3972,
      "ĠDarren": 3973,
      "Ġdiscovered": 3974,
      "ebra": 3975,
      "Ġmelon": 3976,
      "Ġrepresent": 3977,
      "Ġtough": 3978,
      "Ġashamed": 3979,
      "Ġaverage": 3980,
      "Ġunusual": 3981,
      "Ġlibrary": 3982,
      "Ġcocoa": 3983,
      "Ġbracelet": 3984,
      "Ġbranches": 3985,
      "Now": 3986,
      "Sorry": 3987,
      "cy": 3988,
      "fast": 3989,
      "hood": 3990,
      "iable": 3991,
      "lt": 3992,
      "mp": 3993,
      "view": 3994,
      "wick": 3995,
      "zard": 3996,
      "Ġahead": 3997,
      "ndry": 3998,
      "Ġbake": 3999,
      "Ġboun": 4000,
      "Ġtoilet": 4001,
      "Ġfancy": 4002,
      "Ġoct": 4003,
      "Ġcit": 4004,
      "Ġcrocod": 4005,
      "Ġdiv": 4006,
      "Ġlad": 4007,
      "Ġlau": 4008,
      "Ġlanguage": 4009,
      "Ġmic": 4010,
      "Ġmummy": 4011,
      "ators": 4012,
      "ena": 4013,
      "ĠSw": 4014,
      "ĠSing": 4015,
      "ĠSund": 4016,
      "ald": 4017,
      "alt": 4018,
      "Ġsaved": 4019,
      "ĠHurricane": 4020,
      "oted": 4021,
      "iring": 4022,
      "Ġemer": 4023,
      "Ġegg": 4024,
      "verse": 4025,
      "ĠLake": 4026,
      "ĠLook": 4027,
      "ĠBoth": 4028,
      "Ġug": 4029,
      "Ġstat": 4030,
      "Ġstir": 4031,
      "Ġstation": 4032,
      "Ġstage": 4033,
      "Ġstuff": 4034,
      "Ġstubb": 4035,
      "adel": 4036,
      "ĠAward": 4037,
      "ĠMor": 4038,
      "ĠMart": 4039,
      "ĠMimi": 4040,
      "ĠOl": 4041,
      "ĠOut": 4042,
      "Ġshark": 4043,
      "Ġshown": 4044,
      "Ġsharp": 4045,
      "Ġnotice": 4046,
      "Ġlif": 4047,
      "ecause": 4048,
      "ĠCalif": 4049,
      "ula": 4050,
      "ulu": 4051,
      "ulif": 4052,
      "Ġseed": 4053,
      "aser": 4054,
      "Ġload": 4055,
      "oli": 4056,
      "Ġexcept": 4057,
      "Ġspun": 4058,
      "opus": 4059,
      "ifth": 4060,
      "ĠTimes": 4061,
      "ĠFirst": 4062,
      "ĠPre": 4063,
      "ĠPlease": 4064,
      "ĠEvent": 4065,
      "Ġcaulif": 4066,
      "ĠRuss": 4067,
      "ĠRosie": 4068,
      "Ġ22": 4069,
      "Ġ29": 4070,
      "Ġhelps": 4071,
      "ief": 4072,
      "anding": 4073,
      "isting": 4074,
      "Ġrose": 4075,
      "Ġconv": 4076,
      "Ġcompl": 4077,
      "Ġfunction": 4078,
      "thern": 4079,
      "Ġchall": 4080,
      "Ġchart": 4081,
      "ĠNavy": 4082,
      "Ġpray": 4083,
      "ploy": 4084,
      "Ġprec": 4085,
      "Ġrange": 4086,
      "Ġdecide": 4087,
      "Ġtruth": 4088,
      "Ġsadly": 4089,
      "Ġwalks": 4090,
      "Ġpointing": 4091,
      "Ġadorable": 4092,
      "Ġopens": 4093,
      "Ġdogs": 4094,
      "izing": 4095,
      "ization": 4096,
      "Ġpee": 4097,
      "Ġfinding": 4098,
      "Ġolder": 4099,
      "Ġhanded": 4100,
      "ornia": 4101,
      "Ġcolon": 4102,
      "Ġrooms": 4103,
      "ogue": 4104,
      "orses": 4105,
      "Ġcheck": 4106,
      "Ġdispl": 4107,
      "anced": 4108,
      "ĠChurch": 4109,
      "Ġ2005": 4110,
      "Ġsinger": 4111,
      "ĠUnion": 4112,
      "Ġexpensive": 4113,
      "Ġopening": 4114,
      "rict": 4115,
      "Ġdrop": 4116,
      "ĠArmy": 4117,
      "Ġrepair": 4118,
      "Ġdrank": 4119,
      "Ġzebra": 4120,
      "icycle": 4121,
      "Ġguard": 4122,
      "Ġindust": 4123,
      "Ġleaving": 4124,
      "Ġwheel": 4125,
      "Ġpopular": 4126,
      "Ġextended": 4127,
      "Ġsleeping": 4128,
      "ĠScot": 4129,
      "oomy": 4130,
      "Ġshooting": 4131,
      "Ġcovered": 4132,
      "Ġteleph": 4133,
      "Ġspeed": 4134,
      "Ġeasily": 4135,
      "Ġcritic": 4136,
      "Ġbreath": 4137,
      "Ġfeatured": 4138,
      "Ġwagged": 4139,
      "Ġrevealed": 4140,
      "Ġtitle": 4141,
      "Ġstretch": 4142,
      "Ġcurrent": 4143,
      "Ġfeathers": 4144,
      "Ġcarrying": 4145,
      "Ġquestion": 4146,
      "ĠTwo": 4147,
      "Ġjudge": 4148,
      "Ġconstruction": 4149,
      "ĠCompany": 4150,
      "Ġjewel": 4151,
      "Ġpuddle": 4152,
      "estern": 4153,
      "ĠJeff": 4154,
      "ĠRichard": 4155,
      "Ġstrength": 4156,
      "Ġnuts": 4157,
      "Ġvolcano": 4158,
      "Ġdolph": 4159,
      "Ġfavourite": 4160,
      "ĠHenry": 4161,
      "arliament": 4162,
      "Ġlaundry": 4163,
      "Ġstubborn": 4164,
      "ĠCalifornia": 4165,
      "ĠEventually": 4166,
      "Ġcauliflower": 4167,
      "'d": 4168,
      "Please": 4169,
      "apped": 4170,
      "body": 4171,
      "duce": 4172,
      "go": 4173,
      "gress": 4174,
      "iated": 4175,
      "nings": 4176,
      "oppy": 4177,
      "pa": 4178,
      "rid": 4179,
      "tter": 4180,
      "ux": 4181,
      "ĠÃ": 4182,
      "hel": 4183,
      "het": 4184,
      "Ġtap": 4185,
      "Ġtropical": 4186,
      "Ġaud": 4187,
      "Ġsection": 4188,
      "ino": 4189,
      "inet": 4190,
      "Ġbill": 4191,
      "Ġbicycle": 4192,
      "Ġhunt": 4193,
      "Ġhoney": 4194,
      "Ġhorses": 4195,
      "erly": 4196,
      "eros": 4197,
      "Ġfre": 4198,
      "Ġfac": 4199,
      "Ġfurn": 4200,
      "Ġfuel": 4201,
      "Ġoil": 4202,
      "Ġobed": 4203,
      "Ġcy": 4204,
      "ĠTV": 4205,
      "ĠTony": 4206,
      "Ġpair": 4207,
      "Ġpatter": 4208,
      "Ġpacked": 4209,
      "isl": 4210,
      "isher": 4211,
      "Ġmir": 4212,
      "aries": 4213,
      "oming": 4214,
      "Ġhed": 4215,
      "Ġgained": 4216,
      "idents": 4217,
      "Ġnor": 4218,
      "Ġnuc": 4219,
      "Ġnature": 4220,
      "ĠLond": 4221,
      "ĠLaw": 4222,
      "acy": 4223,
      "igade": 4224,
      "ĠBC": 4225,
      "ĠBab": 4226,
      "Ġraced": 4227,
      "Ġrhin": 4228,
      "Ġraven": 4229,
      "Ġstates": 4230,
      "adron": 4231,
      "Ġreb": 4232,
      "ĠMat": 4233,
      "ĠMel": 4234,
      "ĠOK": 4235,
      "Ġplans": 4236,
      "Ġwealth": 4237,
      "Ġwhip": 4238,
      "Ġshake": 4239,
      "Ġshakes": 4240,
      "Ġnote": 4241,
      "Ġnotes": 4242,
      "Ġlie": 4243,
      "endar": 4244,
      "ĠJew": 4245,
      "ĠJerry": 4246,
      "ĠCross": 4247,
      "ĠWhere": 4248,
      "Ġlose": 4249,
      "ĠDucky": 4250,
      "ĠPA": 4251,
      "ĠPri": 4252,
      "ĠPart": 4253,
      "aged": 4254,
      "Ġ27": 4255,
      "Ġvroom": 4256,
      "Ġroyal": 4257,
      "ession": 4258,
      "ĠNA": 4259,
      "ĠNick": 4260,
      "Ġdecor": 4261,
      "Ġtrade": 4262,
      "Ġfluffy": 4263,
      "Ġmoving": 4264,
      "Ġblock": 4265,
      "ipment": 4266,
      "ĠKik": 4267,
      "Ġknowing": 4268,
      "Ġfinds": 4269,
      "Ġquar": 4270,
      "Ġunique": 4271,
      "Ġneedle": 4272,
      "Ġthrow": 4273,
      "Ġways": 4274,
      "Ġfamil": 4275,
      "Ġfamous": 4276,
      "Ġfrustrated": 4277,
      "Ġrelated": 4278,
      "Ġrelations": 4279,
      "Ġharder": 4280,
      "Ġletters": 4281,
      "Ġflea": 4282,
      "Ġ40": 4283,
      "Ġ189": 4284,
      "Ġmusical": 4285,
      "Ġbelow": 4286,
      "Ġears": 4287,
      "ĠAlice": 4288,
      "Ġsounded": 4289,
      "Ġdelay": 4290,
      "Ġactive": 4291,
      "Ġrocket": 4292,
      "Ġnumbers": 4293,
      "Ġfourth": 4294,
      "Ġreported": 4295,
      "Ġstudy": 4296,
      "Ġaccording": 4297,
      "Ġcrazy": 4298,
      "ĠWhisk": 4299,
      "Ġinvestig": 4300,
      "Ġbreakfast": 4301,
      "Ġinform": 4302,
      "Ġleader": 4303,
      "Ġfalls": 4304,
      "Ġcalendar": 4305,
      "Ġconcert": 4306,
      "Ġemploy": 4307,
      "Ġtransf": 4308,
      "Ġcupboard": 4309,
      "Ġsailed": 4310,
      "Ġcharacters": 4311,
      "ĠPoppy": 4312,
      "ĠEngland": 4313,
      "Ġoccas": 4314,
      "Ġbottom": 4315,
      "Ġminute": 4316,
      "Ġowned": 4317,
      "Ġcircles": 4318,
      "Ġspeak": 4319,
      "Ġfootball": 4320,
      "Ġfingers": 4321,
      "Ġcommander": 4322,
      "Ġspray": 4323,
      "Ġpigeon": 4324,
      "Ġstraight": 4325,
      "ography": 4326,
      "Ġadditional": 4327,
      "Ġtube": 4328,
      "Ġsocial": 4329,
      "Ġtools": 4330,
      "ributed": 4331,
      "Ġblew": 4332,
      "sembly": 4333,
      "Ġtunnel": 4334,
      "Ġruined": 4335,
      "Ġintroduced": 4336,
      "ĠToby": 4337,
      "Ġimprove": 4338,
      "ĠHighway": 4339,
      "ĠDavid": 4340,
      "Ġenergy": 4341,
      "Ġtidy": 4342,
      "Ġelephant": 4343,
      "Ġgarage": 4344,
      "keeper": 4345,
      "Ġestablished": 4346,
      "Ġelderly": 4347,
      "Ġcommerc": 4348,
      "Ġmovie": 4349,
      "ĠFollowing": 4350,
      "Ġoctopus": 4351,
      "Ġugly": 4352,
      "Ġtelephone": 4353,
      "Ġnucle": 4354,
      "ĠLondon": 4355,
      "ĠKiki": 4356,
      "ĠWhiskers": 4357,
      "CC": 4358,
      "Help": 4359,
      "Me": 4360,
      "Tim": 4361,
      "Well": 4362,
      "Who": 4363,
      "boy": 4364,
      "burn": 4365,
      "bury": 4366,
      "cher": 4367,
      "ding": 4368,
      "fall": 4369,
      "ford": 4370,
      "gl": 4371,
      "hus": 4372,
      "ki": 4373,
      "kÃ©": 4374,
      "lin": 4375,
      "ran": 4376,
      "right": 4377,
      "ties": 4378,
      "was": 4379,
      "yd": 4380,
      "Äĥ": 4381,
      "Ġsight": 4382,
      "Ġwolf": 4383,
      "rell": 4384,
      "Ġhay": 4385,
      "Ġhut": 4386,
      "erable": 4387,
      "Ġfoc": 4388,
      "Ġfres": 4389,
      "Ġotter": 4390,
      "Ġcone": 4391,
      "Ġcult": 4392,
      "Ġcush": 4393,
      "Ġcows": 4394,
      "Ġpan": 4395,
      "Ġdou": 4396,
      "Ġlack": 4397,
      "Ġmm": 4398,
      "Ġmer": 4399,
      "Ġmale": 4400,
      "Ġmuseum": 4401,
      "arrow": 4402,
      "oms": 4403,
      "iles": 4404,
      "ider": 4405,
      "Ġnation": 4406,
      "alion": 4407,
      "ĠHor": 4408,
      "ĠHel": 4409,
      "ĠHam": 4410,
      "uty": 4411,
      "iction": 4412,
      "ĠLi": 4413,
      "ĠLo": 4414,
      "ĠLou": 4415,
      "ĠLight": 4416,
      "ĠLucky": 4417,
      "aching": 4418,
      "ĠIm": 4419,
      "Ġrather": 4420,
      "Ġones": 4421,
      "Ġstations": 4422,
      "Ġstones": 4423,
      "Ġstairs": 4424,
      "Ġyet": 4425,
      "Ġreverse": 4426,
      "ĠMitt": 4427,
      "ĠManc": 4428,
      "Ġshel": 4429,
      "Ġfort": 4430,
      "Ġforce": 4431,
      "unched": 4432,
      "hern": 4433,
      "Ġlizard": 4434,
      "Ġanal": 4435,
      "ĠJosie": 4436,
      "ĠCup": 4437,
      "Ġsequ": 4438,
      "Ġsearch": 4439,
      "ĠWil": 4440,
      "ashing": 4441,
      "Ġboot": 4442,
      "Ġspend": 4443,
      "Ġarmy": 4444,
      "chie": 4445,
      "ĠPap": 4446,
      "ĠRhod": 4447,
      "elled": 4448,
      "ership": 4449,
      "Ġbackpack": 4450,
      "istol": 4451,
      "abeth": 4452,
      "ĠGen": 4453,
      "Ġfear": 4454,
      "Ġabove": 4455,
      "Ġgraceful": 4456,
      "Ġtracks": 4457,
      "Ġyourself": 4458,
      "Ġfoss": 4459,
      "izabeth": 4460,
      "ĠHero": 4461,
      "ects": 4462,
      "Ġgrapes": 4463,
      "ĠWhenever": 4464,
      "Ġhandle": 4465,
      "Ġsunf": 4466,
      "ians": 4467,
      "Ġhost": 4468,
      "Ġ36": 4469,
      "Ġtea": 4470,
      "Ġtext": 4471,
      "ĠThom": 4472,
      "Ġcompan": 4473,
      "Ġchem": 4474,
      "Ġchest": 4475,
      "Ġended": 4476,
      "Ġreduc": 4477,
      "Ġsurround": 4478,
      "Ġheads": 4479,
      "Ġnods": 4480,
      "ÅĵIt": 4481,
      "Ġattacks": 4482,
      "Ġ2015": 4483,
      "luded": 4484,
      "Ġearth": 4485,
      "Ġcontinue": 4486,
      "ĠVict": 4487,
      "Ġshovel": 4488,
      "Ġdrops": 4489,
      "Ġsandbox": 4490,
      "Ġenthus": 4491,
      "Ġpurse": 4492,
      "Ġ70": 4493,
      "Ġstudies": 4494,
      "Ġcrash": 4495,
      "Ġschools": 4496,
      "Ġbutterflies": 4497,
      "Ġdriving": 4498,
      "Ġlocked": 4499,
      "Ġ1992": 4500,
      "Ġsupply": 4501,
      "Ġpolit": 4502,
      "Ġwheels": 4503,
      "Ġmissing": 4504,
      "ĠMaria": 4505,
      "Ġconfl": 4506,
      "Ġsitu": 4507,
      "Ġvend": 4508,
      "Ġteaching": 4509,
      "Ġorganis": 4510,
      "Ġtransport": 4511,
      "Ġofficial": 4512,
      "astern": 4513,
      "Ġstanding": 4514,
      "ĠPokÃ©": 4515,
      "Ġadmired": 4516,
      "ĠElizabeth": 4517,
      "Ġopera": 4518,
      "Ġbenef": 4519,
      "ĠPlay": 4520,
      "Ġcollect": 4521,
      "ĠColle": 4522,
      "Ġmiddle": 4523,
      "ĠPoland": 4524,
      "Ġescape": 4525,
      "Ġtemple": 4526,
      "Ġpriv": 4527,
      "Ġdishwas": 4528,
      "Ġcampa": 4529,
      "atoes": 4530,
      "Ġcereal": 4531,
      "Ġinitially": 4532,
      "ceeded": 4533,
      "Ġsafely": 4534,
      "Ġcommented": 4535,
      "Ġdiamond": 4536,
      "ĠCaptain": 4537,
      "Ġfemale": 4538,
      "ĠLuke": 4539,
      "ĠRepublic": 4540,
      "Ġnewspaper": 4541,
      "Ġindependent": 4542,
      "Ġnormal": 4543,
      "ĠSunday": 4544,
      "Ġfurniture": 4545,
      "Ġobedient": 4546,
      "Ġhedge": 4547,
      "ĠManchester": 4548,
      "Ġenthusi": 4549,
      "ĠPokÃ©mon": 4550,
      "Ġdishwasher": 4551,
      "Are": 4552,
      "II": 4553,
      "aily": 4554,
      "conom": 4555,
      "ij": 4556,
      "lam": 4557,
      "oves": 4558,
      "rison": 4559,
      "under": 4560,
      "Ã¨": 4561,
      "ÃŃ": 4562,
      "à¤": 4563,
      "ãĤ": 4564,
      "Ġ?": 4565,
      "Ġident": 4566,
      "Ġicy": 4567,
      "heart": 4568,
      "Ġtide": 4569,
      "Ġtask": 4570,
      "Ġsort": 4571,
      "Ġsink": 4572,
      "Ġsides": 4573,
      "Ġsorts": 4574,
      "Ġsuper": 4575,
      "inn": 4576,
      "inary": 4577,
      "reement": 4578,
      "Ġbase": 4579,
      "Ġbomb": 4580,
      "Ġhar": 4581,
      "eries": 4582,
      "Ġft": 4583,
      "Ġfile": 4584,
      "Ġol": 4585,
      "Ġcub": 4586,
      "Ġcertain": 4587,
      "ĠTed": 4588,
      "ĠTown": 4589,
      "Ġpack": 4590,
      "Ġdust": 4591,
      "Ġdiz": 4592,
      "Ġlatter": 4593,
      "Ġmph": 4594,
      "ari": 4595,
      "arched": 4596,
      "atives": 4597,
      "Ġheav": 4598,
      "ĠSec": 4599,
      "ĠSpr": 4600,
      "ĠSince": 4601,
      "idges": 4602,
      "uted": 4603,
      "owl": 4604,
      "ĠLove": 4605,
      "ĠLinc": 4606,
      "ĠHere": 4607,
      "ĠBet": 4608,
      "ĠBro": 4609,
      "Ġumb": 4610,
      "Ġrich": 4611,
      "Ġonion": 4612,
      "Ġbeep": 4613,
      "ĠAf": 4614,
      "Ġren": 4615,
      "ĠMil": 4616,
      "ria": 4617,
      "rief": 4618,
      "Ġforms": 4619,
      "see": 4620,
      "Ġweight": 4621,
      "Ġweird": 4622,
      "urous": 4623,
      "Ġwhom": 4624,
      "Ġshut": 4625,
      "Ġplayers": 4626,
      "Ġlift": 4627,
      "rab": 4628,
      "Ġneg": 4629,
      "ĠJay": 4630,
      "Ġkill": 4631,
      "Ġkilled": 4632,
      "Ġkicked": 4633,
      "Ġsem": 4634,
      "ĠWay": 4635,
      "umb": 4636,
      "umber": 4637,
      "oln": 4638,
      "Ġgoal": 4639,
      "Ġexec": 4640,
      "Ġexamp": 4641,
      "!\".": 4642,
      "ĠDem": 4643,
      "ĠPan": 4644,
      "ĠPort": 4645,
      "ĠPaul": 4646,
      "ĠEach": 4647,
      "Ġlean": 4648,
      "ellig": 4649,
      "Ġknee": 4650,
      "Ġhelper": 4651,
      "andon": 4652,
      "Ġscience": 4653,
      "?\".": 4654,
      "aker": 4655,
      "Ġmeas": 4656,
      "osition": 4657,
      "Ġabandon": 4658,
      "Ġdecision": 4659,
      "Ġtrick": 4660,
      "Ġtrunk": 4661,
      "Ġbecoming": 4662,
      "ndered": 4663,
      "Ġpoet": 4664,
      "ipe": 4665,
      "ivil": 4666,
      "ĠKen": 4667,
      "ĠKey": 4668,
      "Ġcozy": 4669,
      "Ġadj": 4670,
      "Ġadap": 4671,
      "aren": 4672,
      "Ġenorm": 4673,
      "Ġthoughtful": 4674,
      "ĠUK": 4675,
      "Ġusually": 4676,
      "asses": 4677,
      "Ġamount": 4678,
      "Ġballoons": 4679,
      "Ġhopping": 4680,
      "Ġacid": 4681,
      "Ġacqu": 4682,
      "Ġperm": 4683,
      "Ġ32": 4684,
      "Ġ38": 4685,
      "Ġincred": 4686,
      "Ġappl": 4687,
      "Ġcheap": 4688,
      "ression": 4689,
      "Ġgloves": 4690,
      "Ġsurv": 4691,
      "order": 4692,
      "Ġwatches": 4693,
      "Ġjumps": 4694,
      "Ġwarned": 4695,
      "Ġevening": 4696,
      "Ġlouder": 4697,
      "ÅĵYes": 4698,
      "Ġreliable": 4699,
      "Ġkinds": 4700,
      "Ġserve": 4701,
      "Ġrecomm": 4702,
      "ĠSpain": 4703,
      "ĠSpanish": 4704,
      "Ġ51": 4705,
      "Ġcontinu": 4706,
      "Ġcontinues": 4707,
      "Ġcommission": 4708,
      "Ġadventurous": 4709,
      "venue": 4710,
      "Ġcooking": 4711,
      "Ġenjoying": 4712,
      "ĠReal": 4713,
      "Ġbuildings": 4714,
      "Ġsquare": 4715,
      "Ġcreatures": 4716,
      "Ġmessy": 4717,
      "Ġpasses": 4718,
      "Ġlands": 4719,
      "Ġpretending": 4720,
      "Ġcentral": 4721,
      "Ġstops": 4722,
      "Ġzipp": 4723,
      "uggled": 4724,
      "Ġtowers": 4725,
      "Ġplanned": 4726,
      "Ġbelieved": 4727,
      "Ġdistinct": 4728,
      "ibb": 4729,
      "Ġstarts": 4730,
      "Ġphot": 4731,
      "ĠCla": 4732,
      "Ġblackboard": 4733,
      "Ġconcent": 4734,
      "Ġartist": 4735,
      "stein": 4736,
      "Ġofficer": 4737,
      "ĠFrank": 4738,
      "Ġcreation": 4739,
      "Ġprovide": 4740,
      "Ġtermin": 4741,
      "Ġpracticed": 4742,
      "Ġrelief": 4743,
      "Ġsuggest": 4744,
      "ĠMaya": 4745,
      "Ġdeveloped": 4746,
      "Ġraft": 4747,
      "Ġlawy": 4748,
      "Ġapprox": 4749,
      "Ġdisappointed": 4750,
      "Ġreviews": 4751,
      "Ġpastry": 4752,
      "Ġkissed": 4753,
      "Ġcritics": 4754,
      "Ġshells": 4755,
      "Ġmistake": 4756,
      "Ġrequired": 4757,
      "Ġhappening": 4758,
      "Ġwrap": 4759,
      "Ġfeatures": 4760,
      "Ġencoura": 4761,
      "Ġreminded": 4762,
      "Ġattempts": 4763,
      "Ġselling": 4764,
      "Ġhelmet": 4765,
      "Ġhelmets": 4766,
      "Ġauthor": 4767,
      "Ġscene": 4768,
      "Ġwiped": 4769,
      "Ġfailed": 4770,
      "Ġdetail": 4771,
      "Ġdefeat": 4772,
      "Ġresponsible": 4773,
      "ĠTeam": 4774,
      "Ġviolin": 4775,
      "Ġpilot": 4776,
      "ĠSilver": 4777,
      "Ġpopulation": 4778,
      "atinum": 4779,
      "Ġbehavior": 4780,
      "ĠÂ°": 4781,
      "Ġyogurt": 4782,
      "Ġindividual": 4783,
      "Ġculture": 4784,
      "Ġnatural": 4785,
      "ĠMillie": 4786,
      "Ġeducation": 4787,
      "Ġfragile": 4788,
      "ĠAssociation": 4789,
      "Ġmicro": 4790,
      "ĠScotland": 4791,
      "Ġmirror": 4792,
      "Ġcommercial": 4793,
      "rella": 4794,
      "Ġcushion": 4795,
      "Ġsunflower": 4796,
      "Ġcompanies": 4797,
      "Ġdizzy": 4798,
      "ĠLincoln": 4799,
      "Ġumbrella": 4800,
      "Ġexample": 4801,
      "Ġenormous": 4802,
      "Ġincredible": 4803,
      "See": 4804,
      "TS": 4805,
      "cing": 4806,
      "dies": 4807,
      "fish": 4808,
      "gely": 4809,
      "ha": 4810,
      "iers": 4811,
      "oh": 4812,
      "oor": 4813,
      "oid": 4814,
      "po": 4815,
      "ray": 4816,
      "rical": 4817,
      "time": 4818,
      "ville": 4819,
      "wood": 4820,
      "year": 4821,
      "Ġtut": 4822,
      "Ġsug": 4823,
      "Ġsize": 4824,
      "Ġbent": 4825,
      "Ġbas": 4826,
      "Ġbang": 4827,
      "Ġborn": 4828,
      "Ġborrow": 4829,
      "erved": 4830,
      "Ġfine": 4831,
      "Ġfool": 4832,
      "Ġfifth": 4833,
      "ites": 4834,
      "Ġwaff": 4835,
      "Ġcas": 4836,
      "oul": 4837,
      "ĠTra": 4838,
      "Ġpale": 4839,
      "Ġpatch": 4840,
      "Ġdu": 4841,
      "Ġdent": 4842,
      "Ġdug": 4843,
      "Ġlying": 4844,
      "arth": 4845,
      "arian": 4846,
      "omen": 4847,
      "ani": 4848,
      "ania": 4849,
      "orter": 4850,
      "oria": 4851,
      "orida": 4852,
      "ĠSandy": 4853,
      "Ġgem": 4854,
      "Ġgrey": 4855,
      "Ġgifted": 4856,
      "Ġnort": 4857,
      "Ġinst": 4858,
      "Ġinsect": 4859,
      "ication": 4860,
      "iches": 4861,
      "ete": 4862,
      "Ġeconom": 4863,
      "ĠLab": 4864,
      "ament": 4865,
      "ston": 4866,
      "ĠBer": 4867,
      "ĠBel": 4868,
      "Ġrap": 4869,
      "Ġrare": 4870,
      "Ġstream": 4871,
      "Ġbeak": 4872,
      "Ġrefe": 4873,
      "Ġreact": 4874,
      "Ġreaches": 4875,
      "ĠMem": 4876,
      "ĠOx": 4877,
      "ĠOther": 4878,
      "Ġsoil": 4879,
      "sec": 4880,
      "Ġshaking": 4881,
      "ĠJac": 4882,
      "ĠJap": 4883,
      "ĠJones": 4884,
      "Ġkite": 4885,
      "ĠCre": 4886,
      "ĠCast": 4887,
      "ĠCamp": 4888,
      "ĠCody": 4889,
      "illa": 4890,
      "Ġsex": 4891,
      "Ġsearched": 4892,
      "ĠItal": 4893,
      "ĠWin": 4894,
      "ĠWould": 4895,
      "ĠWood": 4896,
      "ĠWashing": 4897,
      "umbled": 4898,
      "olid": 4899,
      "Ġloose": 4900,
      "ĠDr": 4901,
      "ĠDu": 4902,
      "ĠDaw": 4903,
      "opter": 4904,
      "ĠParliament": 4905,
      "Ġallowing": 4906,
      "agon": 4907,
      "Ġcab": 4908,
      "ĠRog": 4909,
      "Ġgirls": 4910,
      "Ġnoisy": 4911,
      "Ġscar": 4912,
      "abel": 4913,
      "ĠGil": 4914,
      "ĠGreat": 4915,
      "ĠGreg": 4916,
      "ĠNet": 4917,
      "Ġpred": 4918,
      "Ġprison": 4919,
      "Ġabs": 4920,
      "Ġwhose": 4921,
      "oceros": 4922,
      "Ġbridges": 4923,
      "Ġintellig": 4924,
      "Ġdecl": 4925,
      "Ġgrad": 4926,
      "Ġflour": 4927,
      "Ġprogress": 4928,
      "ĠKe": 4929,
      "uckily": 4930,
      "Ġdev": 4931,
      "Ġdeal": 4932,
      "Ġpeach": 4933,
      "ĠJoey": 4934,
      "Ġevidence": 4935,
      "Ġcontains": 4936,
      "Ġlearning": 4937,
      "Ġpercent": 4938,
      "Ġthrowing": 4939,
      "Ġcru": 4940,
      "Ġcrack": 4941,
      "issance": 4942,
      "iverse": 4943,
      "Ġdesigned": 4944,
      "Ġhurts": 4945,
      "Ġtrains": 4946,
      "ÅĵLet": 4947,
      "Ġattract": 4948,
      "Ġserved": 4949,
      "Ġwinds": 4950,
      "Ġbrocc": 4951,
      "Ġ42": 4952,
      "Ġbreed": 4953,
      "Ġbreaks": 4954,
      "Ġbehave": 4955,
      "ĠAlbum": 4956,
      "Ġgreater": 4957,
      "Ġrestless": 4958,
      "Ġelection": 4959,
      "Ġmetres": 4960,
      "Ġmethod": 4961,
      "Ġ60": 4962,
      "Ġshoe": 4963,
      "Ġmagazine": 4964,
      "TMm": 4965,
      "leton": 4966,
      "Ġentered": 4967,
      "Ġcountries": 4968,
      "eeze": 4969,
      "Ġsteep": 4970,
      "Ġreading": 4971,
      "Ġcenter": 4972,
      "Ġregard": 4973,
      "ĠFloppy": 4974,
      "ĠWhite": 4975,
      "Ġsupplies": 4976,
      "Ġpicking": 4977,
      "Ġminor": 4978,
      "Ġalbums": 4979,
      "Ġvisited": 4980,
      "Ġpolite": 4981,
      "Ġplanes": 4982,
      "Ġwhether": 4983,
      "Ġwinter": 4984,
      "Ġmarks": 4985,
      "Ġdrawing": 4986,
      "Ġdepend": 4987,
      "Ġsubsequ": 4988,
      "Ġpotential": 4989,
      "ĠBlue": 4990,
      "Ġhung": 4991,
      "Ġassoc": 4992,
      "Ġhairy": 4993,
      "Ġconcluded": 4994,
      "Ġthankful": 4995,
      "Ġdelicate": 4996,
      "Ġbarked": 4997,
      "ĠAmerica": 4998,
      "Ġhighest": 4999,
      "Ġterms": 5000,
      "Ġparticip": 5001,
      "ĠIsland": 5002,
      "Ġjournal": 5003,
      "Ġannual": 5004,
      "Ġpossib": 5005,
      "Ġproposed": 5006,
      "Ġfactory": 5007,
      "Ġsandwiches": 5008,
      "Ġepisodes": 5009,
      "Ġsmooth": 5010,
      "Ġescap": 5011,
      "ubbles": 5012,
      "Ġmotor": 5013,
      "ograph": 5014,
      "Ġissue": 5015,
      "Ġissued": 5016,
      "ercury": 5017,
      "Ġstretched": 5018,
      "Ġshrug": 5019,
      "Ġbanana": 5020,
      "Ġauthors": 5021,
      "Ġearlier": 5022,
      "ĠEuropean": 5023,
      "Ġawarded": 5024,
      "Ġpersistent": 5025,
      "Ġharmless": 5026,
      "ĠAbby": 5027,
      "ĠDespite": 5028,
      "ĠBrownie": 5029,
      "Ġdelighted": 5030,
      "ĠSociety": 5031,
      "ĠBella": 5032,
      "Ġvocal": 5033,
      "Ġinstrument": 5034,
      "Ġambul": 5035,
      "Ġscattered": 5036,
      "Ġcompleted": 5037,
      "Ġsignificant": 5038,
      "Ġsouthern": 5039,
      "Ġnominated": 5040,
      "Ġcausing": 5041,
      "ltimately": 5042,
      "Ġcrocodile": 5043,
      "Ġdivided": 5044,
      "Ġeggs": 5045,
      "Ġlifted": 5046,
      "ĠRussian": 5047,
      "Ġrhinoceros": 5048,
      "Ġrelationship": 5049,
      "ĠThomas": 5050,
      "Ġcampaign": 5051,
      "ĠDemocr": 5052,
      "Ġsugar": 5053,
      "Ġcasual": 5054,
      "ĠJapan": 5055,
      "ĠWashington": 5056,
      "ĠDawson": 5057,
      "Ġbroccoli": 5058,
      "Be": 5059,
      "Give": 5060,
      "Is": 5061,
      "There": 5062,
      "VD": 5063,
      "ait": 5064,
      "ffe": 5065,
      "gent": 5066,
      "hlet": 5067,
      "happy": 5068,
      "ien": 5069,
      "ipl": 5070,
      "ibr": 5071,
      "kin": 5072,
      "ker": 5073,
      "lor": 5074,
      "night": 5075,
      "oved": 5076,
      "oss": 5077,
      "ris": 5078,
      "rad": 5079,
      "rick": 5080,
      "ti": 5081,
      "uf": 5082,
      "vis": 5083,
      "wor": 5084,
      "well": 5085,
      "Ã¡": 5086,
      "Ã¼": 5087,
      "ãĥ": 5088,
      "hem": 5089,
      "Ġwing": 5090,
      "Ġwound": 5091,
      "Ġwestern": 5092,
      "edy": 5093,
      "edition": 5094,
      "inent": 5095,
      "rec": 5096,
      "rect": 5097,
      "Ġber": 5098,
      "Ġbes": 5099,
      "Ġberry": 5100,
      "Ġbrief": 5101,
      "Ġholid": 5102,
      "Ġfake": 5103,
      "Ġfishing": 5104,
      "Ġfasc": 5105,
      "Ġfisher": 5106,
      "itor": 5107,
      "itation": 5108,
      "Ġcust": 5109,
      "Ġpaid": 5110,
      "Ġdive": 5111,
      "Ġdull": 5112,
      "Ġly": 5113,
      "Ġlin": 5114,
      "Ġleng": 5115,
      "Ġlicked": 5116,
      "Ġmelt": 5117,
      "Ġmatt": 5118,
      "arily": 5119,
      "ingham": 5120,
      "ening": 5121,
      "omed": 5122,
      "ilities": 5123,
      "ĠSad": 5124,
      "ĠSqu": 5125,
      "ĠSchool": 5126,
      "ĠSonic": 5127,
      "Ġge": 5128,
      "Ġnic": 5129,
      "Ġnone": 5130,
      "Ġthread": 5131,
      "imum": 5132,
      "imate": 5133,
      "lement": 5134,
      "lected": 5135,
      "ican": 5136,
      "ĠLa": 5137,
      "ĠLine": 5138,
      "ĠLulu": 5139,
      "ams": 5140,
      "amount": 5141,
      "igator": 5142,
      "Ġrout": 5143,
      "Ġrushed": 5144,
      "oops": 5145,
      "ĠMass": 5146,
      "ĠMummy": 5147,
      "Ġplatinum": 5148,
      "ionate": 5149,
      "unar": 5150,
      "Ġshine": 5151,
      "Ġshiver": 5152,
      "Ġplayful": 5153,
      "ucked": 5154,
      "Ġdoc": 5155,
      "Ġathlet": 5156,
      "ĠJam": 5157,
      "ĠCub": 5158,
      "ĠCoco": 5159,
      "ĠCreek": 5160,
      "ĠWats": 5161,
      "umsy": 5162,
      "olk": 5163,
      "ĠDVD": 5164,
      "Ġarrow": 5165,
      "ify": 5166,
      "chy": 5167,
      "ĠField": 5168,
      "ĠPink": 5169,
      "ĠEnt": 5170,
      "Ġleak": 5171,
      "Ġcaused": 5172,
      "Ġclap": 5173,
      "Ġclumsy": 5174,
      "Ġvac": 5175,
      "Ġvent": 5176,
      "anda": 5177,
      "Ġsciss": 5178,
      "Ġconstant": 5179,
      "outs": 5180,
      "Ġagreement": 5181,
      "Ġchir": 5182,
      "Ġchance": 5183,
      "Ġchoice": 5184,
      "Ġmeat": 5185,
      "osa": 5186,
      "Ġprint": 5187,
      "Ġboys": 5188,
      "Ġseeing": 5189,
      "Ġnews": 5190,
      "Ġgrown": 5191,
      "ĠAnnie": 5192,
      "Ġflash": 5193,
      "Ġblow": 5194,
      "Ġproduce": 5195,
      "Ġthanks": 5196,
      "ĠKim": 5197,
      "Ġswamp": 5198,
      "Ġyours": 5199,
      "Ġexcitedly": 5200,
      "Ġevolution": 5201,
      "ections": 5202,
      "ĠStep": 5203,
      "assionate": 5204,
      "Ġexplain": 5205,
      "Ġcolum": 5206,
      "Ġunits": 5207,
      "Ġunhappy": 5208,
      "ighters": 5209,
      "leship": 5210,
      "Ġremains": 5211,
      "Ġcompassionate": 5212,
      "Ġskills": 5213,
      "Ġchess": 5214,
      "Ġdiss": 5215,
      "ancing": 5216,
      "Ġglove": 5217,
      "Ġsurre": 5218,
      "Ġresc": 5219,
      "Ġresist": 5220,
      "Ġwarning": 5221,
      "Ġloudly": 5222,
      "Ġfrown": 5223,
      "Ġreluct": 5224,
      "Ġhighway": 5225,
      "ĠBobo": 5226,
      "Ġrecover": 5227,
      "Ġuseful": 5228,
      "Ġbrand": 5229,
      "Ġrealised": 5230,
      "Ġ500": 5231,
      "Ġperfume": 5232,
      "Ġdoesn": 5233,
      "ĠAlong": 5234,
      "uries": 5235,
      "Ġexpected": 5236,
      "Ġexpedition": 5237,
      "Ġmagnet": 5238,
      "bridge": 5239,
      "ĠRemy": 5240,
      "Ġpresence": 5241,
      "Ġpurp": 5242,
      "Ġsteel": 5243,
      "Ġcreative": 5244,
      "Ġ90": 5245,
      "ship": 5246,
      "Ġcharged": 5247,
      "Ġlargely": 5248,
      "Ġguess": 5249,
      "Ġstickers": 5250,
      "ĠFlorida": 5251,
      "Ġsweetheart": 5252,
      "Ġmarry": 5253,
      "pson": 5254,
      "Ġbows": 5255,
      "Ġinterview": 5256,
      "Ġfields": 5257,
      "apping": 5258,
      "Ġ1968": 5259,
      "ification": 5260,
      "Ġrecording": 5261,
      "Ġbushes": 5262,
      "Ġseems": 5263,
      "Ġassist": 5264,
      "Ġpushing": 5265,
      "Ġpushes": 5266,
      "Ġrolling": 5267,
      "Ġ1940": 5268,
      "ĠTrans": 5269,
      "Ġdefin": 5270,
      "Ġhumans": 5271,
      "Ġguns": 5272,
      "Ġvalley": 5273,
      "Ġpositions": 5274,
      "Ġcrossed": 5275,
      "Ġeffort": 5276,
      "Ġdirection": 5277,
      "Ġowl": 5278,
      "Ġapproached": 5279,
      "ĠForce": 5280,
      "Ġfigures": 5281,
      "Ġcardboard": 5282,
      "Ġpropos": 5283,
      "Ġmonkeys": 5284,
      "Ġgolden": 5285,
      "laimed": 5286,
      "Ġshouts": 5287,
      "Ġshouting": 5288,
      "Ġmotion": 5289,
      "Ġcaptured": 5290,
      "Ġwrapped": 5291,
      "Ġcrawled": 5292,
      "scope": 5293,
      "Ġanswer": 5294,
      "Ġsuffered": 5295,
      "Ġcampus": 5296,
      "Ġweapon": 5297,
      "Ġcelebrated": 5298,
      "Ġapart": 5299,
      "Ġquestions": 5300,
      "Ġequipment": 5301,
      "ĠCentral": 5302,
      "Ġeffects": 5303,
      "Ġearliest": 5304,
      "Ġlaunched": 5305,
      "Ġmiserable": 5306,
      "Ġlimited": 5307,
      "ĠParamount": 5308,
      "Ġobserved": 5309,
      "Ġignored": 5310,
      "ĠMadrid": 5311,
      "Ġprofess": 5312,
      "Ġdebuted": 5313,
      "hibit": 5314,
      "Ġbumped": 5315,
      "Ġoccurred": 5316,
      "Ġtechnology": 5317,
      "Ġscrews": 5318,
      "Ġcolourful": 5319,
      "Ġstranger": 5320,
      "Ġcrowd": 5321,
      "Ġresulted": 5322,
      "Ġspoiled": 5323,
      "eezed": 5324,
      "Ġladder": 5325,
      "Ġnorthern": 5326,
      "ĠJewish": 5327,
      "Ġinformation": 5328,
      "Ġnuclear": 5329,
      "Ġfresh": 5330,
      "ĠMittens": 5331,
      "Ġconflict": 5332,
      "Ġvendor": 5333,
      "Ġzipper": 5334,
      "ĠClaire": 5335,
      "Ġmicroscope": 5336,
      "Ġfoolish": 5337,
      "Ġwaffle": 5338,
      "Ġdentist": 5339,
      "Ġnortheast": 5340,
      "Ġrapid": 5341,
      "Ġambulance": 5342,
      "Ġcasualties": 5343,
      "ffee": 5344,
      "ĠWatson": 5345,
      "Ġscissors": 5346,
      "FA": 5347,
      "If": 5348,
      "OT": 5349,
      "Ow": 5350,
      "bound": 5351,
      "bour": 5352,
      "ees": 5353,
      "fa": 5354,
      "gen": 5355,
      "gia": 5356,
      "ias": 5357,
      "ients": 5358,
      "jo": 5359,
      "ky": 5360,
      "mond": 5361,
      "nna": 5362,
      "oard": 5363,
      "rons": 5364,
      "sing": 5365,
      "uild": 5366,
      "wide": 5367,
      "west": 5368,
      "yster": 5369,
      "Ã¶": 5370,
      "Ġi": 5371,
      "Ġtied": 5372,
      "Ġax": 5373,
      "Ġachie": 5374,
      "Ġsend": 5375,
      "eder": 5376,
      "inated": 5377,
      "reets": 5378,
      "Ġbur": 5379,
      "Ġbelt": 5380,
      "Ġborder": 5381,
      "Ġbubbles": 5382,
      "Ġtoe": 5383,
      "Ġhour": 5384,
      "Ġhits": 5385,
      "Ġhomes": 5386,
      "Ġhyd": 5387,
      "Ġfusion": 5388,
      "Ġok": 5389,
      "Ġoyster": 5390,
      "itoch": 5391,
      "Ġwaves": 5392,
      "Ġcm": 5393,
      "Ġcam": 5394,
      "Ġcong": 5395,
      "Ġcoup": 5396,
      "Ġcities": 5397,
      "Ġcivil": 5398,
      "ĠTun": 5399,
      "ĠTime": 5400,
      "ĠTest": 5401,
      "ĠTour": 5402,
      "ĠTele": 5403,
      "ĠTex": 5404,
      "Ġpaw": 5405,
      "Ġder": 5406,
      "Ġdim": 5407,
      "Ġduty": 5408,
      "Ġlend": 5409,
      "Ġlaser": 5410,
      "isco": 5411,
      "Ġmuff": 5412,
      "Ġmaster": 5413,
      "aroo": 5414,
      "onc": 5415,
      "onna": 5416,
      "Ġheal": 5417,
      "ann": 5418,
      "ĠSS": 5419,
      "ĠSch": 5420,
      "ĠSuper": 5421,
      "Ġinsp": 5422,
      "imp": 5423,
      "ĠHo": 5424,
      "utive": 5425,
      "otes": 5426,
      "icle": 5427,
      "ications": 5428,
      "etch": 5429,
      "Ġherb": 5430,
      "ĠSher": 5431,
      "ĠLife": 5432,
      "amber": 5433,
      "iger": 5434,
      "ĠBay": 5435,
      "ĠBey": 5436,
      "ĠBee": 5437,
      "Ġultimately": 5438,
      "Ġrise": 5439,
      "Ġracing": 5440,
      "Ġstages": 5441,
      "Ġstadium": 5442,
      "Ġstumbled": 5443,
      "Ġbeads": 5444,
      "adem": 5445,
      "ĠAc": 5446,
      "ĠAv": 5447,
      "ĠMid": 5448,
      "ĠMet": 5449,
      "ĠMur": 5450,
      "ĠMod": 5451,
      "ĠMount": 5452,
      "ĠMoon": 5453,
      "ĠMost": 5454,
      "ĠMex": 5455,
      "ĠOcean": 5456,
      "rie": 5457,
      "rior": 5458,
      "Ġweather": 5459,
      "Ġwebs": 5460,
      "unes": 5461,
      "Ġshone": 5462,
      "rage": 5463,
      "ĠJav": 5464,
      "acket": 5465,
      "Ġkil": 5466,
      "Ġkid": 5467,
      "Ġkang": 5468,
      "Ġkitten": 5469,
      "ittee": 5470,
      "uments": 5471,
      "Ġloss": 5472,
      "alls": 5473,
      "alled": 5474,
      "Ġgod": 5475,
      "ĠBenn": 5476,
      "Ġjur": 5477,
      "Ġjelly": 5478,
      "Ġjunk": 5479,
      "ĠDi": 5480,
      "ĠDay": 5481,
      "ĠDave": 5482,
      "inda": 5483,
      "Ġarch": 5484,
      "Ġarrest": 5485,
      "ĠFle": 5486,
      "ĠPat": 5487,
      "ightened": 5488,
      "Ġalligator": 5489,
      "ago": 5490,
      "ĠEast": 5491,
      "udi": 5492,
      "ĠRad": 5493,
      "elling": 5494,
      "Ġvan": 5495,
      "Ġvote": 5496,
      "Ġknight": 5497,
      "Ġknob": 5498,
      "Ġfriendship": 5499,
      "Ġscold": 5500,
      "Your": 5501,
      "Ġconver": 5502,
      "Ġconcept": 5503,
      "ĠGl": 5504,
      "ĠGood": 5505,
      "ĠGreen": 5506,
      "Ġchick": 5507,
      "Ġchasing": 5508,
      "Ġchips": 5509,
      "Ġchoose": 5510,
      "Ġmeadow": 5511,
      "Ġfever": 5512,
      "osph": 5513,
      "Ġsomewhere": 5514,
      "Ġcaring": 5515,
      "berry": 5516,
      "Ġfounded": 5517,
      "ĠAnne": 5518,
      "angÄĥ": 5519,
      "Ġtroops": 5520,
      "Ġtwice": 5521,
      "Ġexclaimed": 5522,
      "Ġblood": 5523,
      "ubble": 5524,
      "Ġcoal": 5525,
      "Ġcoffee": 5526,
      "Ġadop": 5527,
      "Ġpeb": 5528,
      "Ġcareer": 5529,
      "Ġknows": 5530,
      "ĠSoap": 5531,
      "ĠUnder": 5532,
      "Ġslides": 5533,
      "Ġcontract": 5534,
      "Ġshowing": 5535,
      "Ġquality": 5536,
      "Ġqueen": 5537,
      "Ġsungl": 5538,
      "Ġacadem": 5539,
      "Ġunc": 5540,
      "Ġuncom": 5541,
      "Ġproudly": 5542,
      "Ġ33": 5543,
      "Ġboxes": 5544,
      "Ġremaining": 5545,
      "Ġremoved": 5546,
      "ĠAssembly": 5547,
      "Ġdisp": 5548,
      "ĠAndy": 5549,
      "ĠAnderson": 5550,
      "prise": 5551,
      "Ġcrick": 5552,
      "ancakes": 5553,
      "ĠChan": 5554,
      "ĠChines": 5555,
      "ĠCharl": 5556,
      "Ġfollows": 5557,
      "Ġsniff": 5558,
      "Ġnearly": 5559,
      "Ġ2001": 5560,
      "Ġ2003": 5561,
      "Ġrelax": 5562,
      "Ġreplace": 5563,
      "Ġelements": 5564,
      "ĠCanada": 5565,
      "rics": 5566,
      "Ġpainter": 5567,
      "Ġfloating": 5568,
      "Ġpulls": 5569,
      "Ġtrial": 5570,
      "Ġhats": 5571,
      "Ġlarger": 5572,
      "Ġsticker": 5573,
      "Ġforgave": 5574,
      "Ġmarked": 5575,
      "Ġholds": 5576,
      "Ġairport": 5577,
      "Ġinterse": 5578,
      "Ġhoping": 5579,
      "Ġ1990": 5580,
      "Ġ1993": 5581,
      "Ġ1997": 5582,
      "Ġsymb": 5583,
      "Ġinvolved": 5584,
      "Ġreform": 5585,
      "Ġdreaming": 5586,
      "Ġmighty": 5587,
      "Ġphil": 5588,
      "Ġleading": 5589,
      "Ġfreeway": 5590,
      "ĠMrs": 5591,
      "Ġ1972": 5592,
      "ĠBritain": 5593,
      "ĠZara": 5594,
      "ĠScott": 5595,
      "Ġprotected": 5596,
      "Ġparade": 5597,
      "Ġdescribes": 5598,
      "ĠFrance": 5599,
      "Ġvisitors": 5600,
      "ĠTweetie": 5601,
      "Ġpositive": 5602,
      "Ġperfectly": 5603,
      "Ġsuggests": 5604,
      "ĠIslam": 5605,
      "Ġmajority": 5606,
      "ĠBefore": 5607,
      "Ġproblems": 5608,
      "Ġfault": 5609,
      "Ġmaintain": 5610,
      "Ġpenguins": 5611,
      "Ġchanges": 5612,
      "Ġ1918": 5613,
      "ĠKingdom": 5614,
      "ĠCarol": 5615,
      "Ġadvant": 5616,
      "Ġservices": 5617,
      "Ġexperi": 5618,
      "Ġera": 5619,
      "Ġmanager": 5620,
      "Ġcostume": 5621,
      "Ġimpressive": 5622,
      "Ġbreathe": 5623,
      "Ġincrease": 5624,
      "Ġincreased": 5625,
      "Ġtemper": 5626,
      "Ġencount": 5627,
      "Ġcarrots": 5628,
      "ĠDanny": 5629,
      "Ġlevels": 5630,
      "ĠRegiment": 5631,
      "Ġpupil": 5632,
      "Ġscenes": 5633,
      "Ġceremon": 5634,
      "Ġcopies": 5635,
      "Ġpoured": 5636,
      "ĠMaggie": 5637,
      "Ġjogging": 5638,
      "ĠProject": 5639,
      "Ġscratch": 5640,
      "Ġinfluence": 5641,
      "Ġbikes": 5642,
      "Ġcells": 5643,
      "Ġpillow": 5644,
      "ĠBattalion": 5645,
      "Ġsteps": 5646,
      "Ġreligious": 5647,
      "Ġneighbor": 5648,
      "Ġpalm": 5649,
      "ĠBrah": 5650,
      "Ġactivities": 5651,
      "Ġliterary": 5652,
      "Ġdestroyed": 5653,
      "Ġdelivered": 5654,
      "Ġdiscovery": 5655,
      "Ġpirates": 5656,
      "Ġnaval": 5657,
      "ĠKorean": 5658,
      "Ġphysical": 5659,
      "Ġproperty": 5660,
      "Ġcitadel": 5661,
      "Ġemerg": 5662,
      "Ġchallen": 5663,
      "Ġdolphin": 5664,
      "ĠParty": 5665,
      "Ġfamilies": 5666,
      "Ġtransferred": 5667,
      "Ġoccasion": 5668,
      "ĠPapa": 5669,
      "ĠRhodes": 5670,
      "Ġreduced": 5671,
      "ĠBroad": 5672,
      "ĠAfric": 5673,
      "Ġadapted": 5674,
      "Ġlawyer": 5675,
      "Ġencouraged": 5676,
      "Ġtutor": 5677,
      "ĠCreangÄĥ": 5678,
      "agonist": 5679,
      "ĠNether": 5680,
      "Ġintelligent": 5681,
      "ÅĵLetÃ¢": 5682,
      "ĠAlbums": 5683,
      "Ġdependable": 5684,
      "Ġholiday": 5685,
      "Ġlength": 5686,
      "Ġmattress": 5687,
      "Ġdocument": 5688,
      "ĠPinky": 5689,
      "itochond": 5690,
      "Ġkangaroo": 5691,
      "Ġsunglasses": 5692,
      "ĠChinese": 5693,
      "ĠCharlie": 5694,
      "Anna": 5695,
      "NA": 5696,
      "Ok": 5697,
      "Where": 5698,
      "aver": 5699,
      "awn": 5700,
      "bi": 5701,
      "che": 5702,
      "da": 5703,
      "drobe": 5704,
      "eah": 5705,
      "gin": 5706,
      "hir": 5707,
      "hile": 5708,
      "host": 5709,
      "hroom": 5710,
      "lo": 5711,
      "ners": 5712,
      "nold": 5713,
      "oke": 5714,
      "off": 5715,
      "pe": 5716,
      "pher": 5717,
      "pond": 5718,
      "rs": 5719,
      "rill": 5720,
      "she": 5721,
      "ye": 5722,
      "Ġet": 5723,
      "Ġtar": 5724,
      "Ġtip": 5725,
      "Ġturb": 5726,
      "Ġske": 5727,
      "Ġsust": 5728,
      "Ġsense": 5729,
      "Ġtheater": 5730,
      "Ġwine": 5731,
      "Ġwomen": 5732,
      "inist": 5733,
      "rem": 5734,
      "Ġbree": 5735,
      "Ġbull": 5736,
      "Ġtons": 5737,
      "Ġhyp": 5738,
      "Ġhipp": 5739,
      "Ġfans": 5740,
      "itter": 5741,
      "Ġcoo": 5742,
      "Ġcri": 5743,
      "ĠTri": 5744,
      "Ġpun": 5745,
      "Ġpaws": 5746,
      "Ġpancakes": 5747,
      "Ġdess": 5748,
      "Ġdied": 5749,
      "Ġdomin": 5750,
      "Ġlam": 5751,
      "Ġlaz": 5752,
      "isf": 5753,
      "isp": 5754,
      "Ġmax": 5755,
      "Ġmount": 5756,
      "Ġmint": 5757,
      "Ġmama": 5758,
      "Ġwashed": 5759,
      "Ġwaste": 5760,
      "orus": 5761,
      "orpor": 5762,
      "ĠSR": 5763,
      "ĠSal": 5764,
      "ĠSout": 5765,
      "ĠSunny": 5766,
      "ĠSummer": 5767,
      "ĠSTS": 5768,
      "Ġgroc": 5769,
      "Ġgolf": 5770,
      "Ġghost": 5771,
      "Ġnine": 5772,
      "Ġink": 5773,
      "alle": 5774,
      "Ġthus": 5775,
      "ica": 5776,
      "ette": 5777,
      "irm": 5778,
      "iron": 5779,
      "ĠLive": 5780,
      "ĠLike": 5781,
      "ĠLuckily": 5782,
      "aming": 5783,
      "stone": 5784,
      "ĠIV": 5785,
      "ĠBal": 5786,
      "ĠBond": 5787,
      "ĠBunny": 5788,
      "ĠBBC": 5789,
      "Ġur": 5790,
      "Ġrum": 5791,
      "Ġrate": 5792,
      "Ġrule": 5793,
      "Ġstaff": 5794,
      "Ġbeat": 5795,
      "vere": 5796,
      "Ġyum": 5797,
      "enty": 5798,
      "lying": 5799,
      "ĠApp": 5800,
      "Ġrese": 5801,
      "ĠMiss": 5802,
      "ĠMany": 5803,
      "ĠOly": 5804,
      "Ġforth": 5805,
      "Ġforces": 5806,
      "Ġplot": 5807,
      "Ġsofa": 5808,
      "cepted": 5809,
      "urity": 5810,
      "Ġshunt": 5811,
      "Ġlik": 5812,
      "rap": 5813,
      "rops": 5814,
      "htub": 5815,
      "Ġhappens": 5816,
      "Ġhappier": 5817,
      "ĠCarl": 5818,
      "ulf": 5819,
      "illery": 5820,
      "ĠWed": 5821,
      "ĠWater": 5822,
      "ums": 5823,
      "asis": 5824,
      "ugs": 5825,
      "ola": 5826,
      "Ġexist": 5827,
      "Ġexerc": 5828,
      "ĠDra": 5829,
      "Ġspear": 5830,
      "Ġalive": 5831,
      "ops": 5832,
      "ĠFil": 5833,
      "ĠFalls": 5834,
      "Ġleash": 5835,
      "ĠRun": 5836,
      "ĠRude": 5837,
      "Ġvia": 5838,
      "Ġveter": 5839,
      "Ġvict": 5840,
      "Ġscri": 5841,
      "Ġscale": 5842,
      "Ġscored": 5843,
      "Ġrob": 5844,
      "Ġstarting": 5845,
      "Ġworse": 5846,
      "Ġagent": 5847,
      "ques": 5848,
      "ĠGro": 5849,
      "ĠGol": 5850,
      "Ġchamp": 5851,
      "ĠNot": 5852,
      "Ġmeal": 5853,
      "osen": 5854,
      "Ġability": 5855,
      "ously": 5856,
      "place": 5857,
      "Ġranked": 5858,
      "Ġintended": 5859,
      "beral": 5860,
      "Ġbirdie": 5861,
      "Ġdecomp": 5862,
      "Ġgray": 5863,
      "Ġmole": 5864,
      "Ġbloom": 5865,
      "ubbed": 5866,
      "iple": 5867,
      "Ġcoats": 5868,
      "Ġsword": 5869,
      "Ġenvel": 5870,
      "Ġenfor": 5871,
      "Ġfeelings": 5872,
      "Ġfog": 5873,
      "ĠJose": 5874,
      "Ġuses": 5875,
      "Ġslipped": 5876,
      "Ġsunset": 5877,
      "Ġaccepted": 5878,
      "Ġeaten": 5879,
      "Ġunderground": 5880,
      "Ġ34": 5881,
      "Ġ35": 5882,
      "Ġ37": 5883,
      "ĠThanks": 5884,
      "Ġinches": 5885,
      "Ġincident": 5886,
      "Ġremain": 5887,
      "Ġremove": 5888,
      "Ġcompared": 5889,
      "Ġparties": 5890,
      "Ġending": 5891,
      "Ġimpat": 5892,
      "Ġfinanc": 5893,
      "ressed": 5894,
      "ĠChar": 5895,
      "ĠChomp": 5896,
      "Ġwardrobe": 5897,
      "Ġtrav": 5898,
      "Ġcleaning": 5899,
      "ledge": 5900,
      "Ġ2002": 5901,
      "Ġframe": 5902,
      "Ġfridge": 5903,
      "Ġfrightened": 5904,
      "Ġhighly": 5905,
      "Ġrecent": 5906,
      "ĠBrigade": 5907,
      "Ġbadly": 5908,
      "Ġmushroom": 5909,
      "Ġincludes": 5910,
      "ĠVal": 5911,
      "ĠVir": 5912,
      "Ġsetting": 5913,
      "Ġmostly": 5914,
      "Ġacting": 5915,
      "Ġactor": 5916,
      "Ġactually": 5917,
      "respond": 5918,
      "Ġgrabs": 5919,
      "Ġ64": 5920,
      "Ġ65": 5921,
      "Ġours": 5922,
      "erto": 5923,
      "Ġsoftly": 5924,
      "Ġcastles": 5925,
      "Ġentr": 5926,
      "Ġpurch": 5927,
      "Ġsqueeze": 5928,
      "Ġnumerous": 5929,
      "Ġrepe": 5930,
      "Ġ93": 5931,
      "Ġpassing": 5932,
      "Ġfellow": 5933,
      "Ġguy": 5934,
      "Ġguys": 5935,
      "Ġsweetie": 5936,
      "Ġmarried": 5937,
      "Ġmarriage": 5938,
      "Ġconsisted": 5939,
      "Ġinvol": 5940,
      "Ġsatisf": 5941,
      "Ġlaughs": 5942,
      "Ġmission": 5943,
      "Ġdistrict": 5944,
      "ological": 5945,
      "Ġdrawer": 5946,
      "Ġsubject": 5947,
      "ĠBloom": 5948,
      "ĠShow": 5949,
      "ounc": 5950,
      "Ġtransl": 5951,
      "Ġsailors": 5952,
      "ĠFranc": 5953,
      "ĠWarwick": 5954,
      "ĠWarrior": 5955,
      "Ġterri": 5956,
      "ĠSephir": 5957,
      "Ġ1950": 5958,
      "Ġwriter": 5959,
      "ĠGermany": 5960,
      "Ġcrosses": 5961,
      "Ġwelcomed": 5962,
      "Ġraised": 5963,
      "ĠPrinc": 5964,
      "Ġvideos": 5965,
      "Ġ1980": 5966,
      "Ġ1989": 5967,
      "Ġbathroom": 5968,
      "ĠIndia": 5969,
      "Ġfruits": 5970,
      "Ġmilitants": 5971,
      "ervation": 5972,
      "ĠAlexander": 5973,
      "Ġtroubled": 5974,
      "Ġmodel": 5975,
      "Ġmodest": 5976,
      "ĠHarrison": 5977,
      "Ġspinning": 5978,
      "Ġsalt": 5979,
      "Ġbarks": 5980,
      "Ġmachines": 5981,
      "Ġgiggle": 5982,
      "Ġspring": 5983,
      "ĠNext": 5984,
      "Ġtwirling": 5985,
      "Ġcompetitive": 5986,
      "ĠSystem": 5987,
      "Ġangels": 5988,
      "Ġincreasing": 5989,
      "Ġsociety": 5990,
      "Ġcrawl": 5991,
      "Ġcrawling": 5992,
      "Ġcombat": 5993,
      "Ġopposed": 5994,
      "Ġcelebrate": 5995,
      "Ġimagined": 5996,
      "Ġapolog": 5997,
      "edicine": 5998,
      "Ġjewels": 5999,
      "Ġconduct": 6000,
      "Ġmultiple": 6001,
      "Ġargue": 6002,
      "Ġdirectly": 6003,
      "Ġprimarily": 6004,
      "ĠQuant": 6005,
      "Ġbathtub": 6006,
      "Ġprepared": 6007,
      "Ġprepare": 6008,
      "Ġreligion": 6009,
      "Ġrecognized": 6010,
      "Ġpresidential": 6011,
      "Ġradio": 6012,
      "ĠPresident": 6013,
      "Ġoxid": 6014,
      "ĠSimpson": 6015,
      "ĠChampions": 6016,
      "Ġbeginning": 6017,
      "Ġillness": 6018,
      "ĠMichael": 6019,
      "ĠMichaels": 6020,
      "ĠUpon": 6021,
      "ĠDepartment": 6022,
      "Ġpollen": 6023,
      "Ġcollar": 6024,
      "Ġvehicles": 6025,
      "Ġbounce": 6026,
      "ĠOlly": 6027,
      "Ġcharts": 6028,
      "Ġindustry": 6029,
      "Timmy": 6030,
      "ĠHelen": 6031,
      "Ġshelter": 6032,
      "ĠWilson": 6033,
      "Ġfossils": 6034,
      "Ġsituation": 6035,
      "ĠCollege": 6036,
      "Ġenthusiastic": 6037,
      "ĠPanzer": 6038,
      "ĠLabour": 6039,
      "ĠRoger": 6040,
      "ĠGilbert": 6041,
      "Ġassociated": 6042,
      "Ġpossibly": 6043,
      "Ġshrugged": 6044,
      "Ġberries": 6045,
      "Ġlyrics": 6046,
      "Ġnicely": 6047,
      "Ġvacation": 6048,
      "Ġreluctantly": 6049,
      "Ġcouple": 6050,
      "ĠTexas": 6051,
      "Ġwebsite": 6052,
      "Ġpebble": 6053,
      "Ġsymbol": 6054,
      "ĠNetherlands": 6055,
      "Ġdessert": 6056,
      "Ġlazy": 6057,
      "Ġenvelope": 6058,
      "ĠChompy": 6059,
      "ĠSephiroth": 6060,
      "AA": 6061,
      "Because": 6062,
      "Bye": 6063,
      "Go": 6064,
      "Pa": 6065,
      "Sara": 6066,
      "TO": 6067,
      "TV": 6068,
      "aved": 6069,
      "ault": 6070,
      "eers": 6071,
      "hold": 6072,
      "iel": 6073,
      "iop": 6074,
      "iate": 6075,
      "jected": 6076,
      "loo": 6077,
      "mier": 6078,
      "nag": 6079,
      "oll": 6080,
      "then": 6081,
      "tions": 6082,
      "tained": 6083,
      "uished": 6084,
      "wing": 6085,
      "while": 6086,
      "ya": 6087,
      "yph": 6088,
      "zzy": 6089,
      "Äģ": 6090,
      "Äĩ": 6091,
      "Ġig": 6092,
      "Ġion": 6093,
      "Ġille": 6094,
      "Ġtiss": 6095,
      "Ġsum": 6096,
      "Ġsigh": 6097,
      "Ġsup": 6098,
      "Ġwick": 6099,
      "inem": 6100,
      "inchy": 6101,
      "reck": 6102,
      "Ġbother": 6103,
      "Ġbank": 6104,
      "Ġburn": 6105,
      "Ġbubble": 6106,
      "Ġholes": 6107,
      "erk": 6108,
      "Ġfaced": 6109,
      "Ġfishes": 6110,
      "Ġfiring": 6111,
      "Ġoasis": 6112,
      "itan": 6113,
      "Ġwand": 6114,
      "Ġwagon": 6115,
      "Ġcher": 6116,
      "Ġcurt": 6117,
      "Ġcreek": 6118,
      "ĠTat": 6119,
      "ĠTen": 6120,
      "ĠTor": 6121,
      "Ġpit": 6122,
      "Ġpistol": 6123,
      "Ġpipe": 6124,
      "Ġdedic": 6125,
      "Ġlid": 6126,
      "Ġlily": 6127,
      "Ġluck": 6128,
      "Ġlions": 6129,
      "Ġlicks": 6130,
      "Ġlaid": 6131,
      "Ġmi": 6132,
      "Ġmild": 6133,
      "Ġmercury": 6134,
      "Ġmedicine": 6135,
      "aron": 6136,
      "onent": 6137,
      "onse": 6138,
      "enant": 6139,
      "enior": 6140,
      "oma": 6141,
      "anz": 6142,
      "anted": 6143,
      "anwhile": 6144,
      "orough": 6145,
      "ĠSat": 6146,
      "ĠSain": 6147,
      "ĠSure": 6148,
      "ĠSee": 6149,
      "Ġgor": 6150,
      "Ġgum": 6151,
      "Ġgoose": 6152,
      "Ġnerv": 6153,
      "Ġnarrow": 6154,
      "Ġinvent": 6155,
      "Ġinstruc": 6156,
      "alities": 6157,
      "Ġthump": 6158,
      "Ġsaving": 6159,
      "ĠHens": 6160,
      "ĠHaw": 6161,
      "ĠHelp": 6162,
      "utch": 6163,
      "icit": 6164,
      "icing": 6165,
      "icopter": 6166,
      "ety": 6167,
      "elod": 6168,
      "Ġecl": 6169,
      "Ġeastern": 6170,
      "Ġhers": 6171,
      "ĠSheff": 6172,
      "acon": 6173,
      "acent": 6174,
      "amos": 6175,
      "ĠBes": 6176,
      "ĠBig": 6177,
      "ĠBull": 6178,
      "ĠBecause": 6179,
      "Ġrid": 6180,
      "Ġraz": 6181,
      "Ġribb": 6182,
      "Ġstom": 6183,
      "Ġstored": 6184,
      "Ġbean": 6185,
      "Ġbees": 6186,
      "ooped": 6187,
      "Ġwithd": 6188,
      "ado": 6189,
      "Ġreun": 6190,
      "ĠMoo": 6191,
      "ĠMatt": 6192,
      "ĠMike": 6193,
      "ĠMajor": 6194,
      "ppers": 6195,
      "ĠOak": 6196,
      "rian": 6197,
      "lled": 6198,
      "cend": 6199,
      "unn": 6200,
      "unction": 6201,
      "Ġassemb": 6202,
      "Ġshocked": 6203,
      "Ġplays": 6204,
      "Ġliqu": 6205,
      "Ġlives": 6206,
      "ech": 6207,
      "ender": 6208,
      "ucted": 6209,
      "Ġdoct": 6210,
      "roat": 6211,
      "ĠJon": 6212,
      "ĠJul": 6213,
      "ĠCy": 6214,
      "ĠCle": 6215,
      "ĠCong": 6216,
      "ulated": 6217,
      "ĠWals": 6218,
      "ĠWales": 6219,
      "umes": 6220,
      "Ġbodies": 6221,
      "Ġjam": 6222,
      "Ġjolly": 6223,
      "ĠDutch": 6224,
      "Ġalien": 6225,
      "Ġoutd": 6226,
      "iform": 6227,
      "ĠFar": 6228,
      "ĠPup": 6229,
      "ĠPost": 6230,
      "ĠPete": 6231,
      "ĠPinchy": 6232,
      "estival": 6233,
      "ĠEn": 6234,
      "ĠEr": 6235,
      "ĠEarth": 6236,
      "Ġleis": 6237,
      "Ġleap": 6238,
      "Ġlemon": 6239,
      "Ġcakes": 6240,
      "Ġclock": 6241,
      "Ġhelicopter": 6242,
      "Ġbackground": 6243,
      "Ġvo": 6244,
      "Ġvess": 6245,
      "ems": 6246,
      "akers": 6247,
      "Ġcomf": 6248,
      "essed": 6249,
      "ĠGar": 6250,
      "ĠGold": 6251,
      "ĠGreek": 6252,
      "Ġchain": 6253,
      "Ġchief": 6254,
      "ĠNY": 6255,
      "apers": 6256,
      "oses": 6257,
      "antry": 6258,
      "berg": 6259,
      "Ġdecre": 6260,
      "âĤ¬.": 6261,
      "âĤ¬âĢ": 6262,
      "Ġgrin": 6263,
      "ĠAng": 6264,
      "ĠAnn": 6265,
      "ĠAnother": 6266,
      "aves": 6267,
      "angle": 6268,
      "Ġparks": 6269,
      "Ġblues": 6270,
      "Ġpoison": 6271,
      "Ġ2000": 6272,
      "Ġputting": 6273,
      "ube": 6274,
      "iven": 6275,
      "Ġmyself": 6276,
      "Ġadult": 6277,
      "Ġoverall": 6278,
      "Ġdeb": 6279,
      "obile": 6280,
      "izes": 6281,
      "izations": 6282,
      "Ġpeak": 6283,
      "Ġpeace": 6284,
      "Ġanyway": 6285,
      "Ġcareless": 6286,
      "aunt": 6287,
      "Ġstrugg": 6288,
      "Ġimm": 6289,
      "Ġslid": 6290,
      "Ġslight": 6291,
      "ĠStart": 6292,
      "ĠStadium": 6293,
      "ĠdidnÃ¢": 6294,
      "Ġquit": 6295,
      "Ġcats": 6296,
      "Ġuniversity": 6297,
      "Ġuniform": 6298,
      "ĠThor": 6299,
      "Ġapparent": 6300,
      "Ġappointed": 6301,
      "Ġcompos": 6302,
      "Ġcomposed": 6303,
      "ignment": 6304,
      "Ġcalls": 6305,
      "Ġimpact": 6306,
      "Ġcrane": 6307,
      "ĠChart": 6308,
      "Ġglob": 6309,
      "Ġglowing": 6310,
      "Ġgloomy": 6311,
      "Ġresident": 6312,
      "venth": 6313,
      "Ġwarnings": 6314,
      "Ġclosely": 6315,
      "Ġtrash": 6316,
      "Ġsnuggled": 6317,
      "Ġattic": 6318,
      "Ġattach": 6319,
      "aze": 6320,
      "Ġideas": 6321,
      "Ġ180": 6322,
      "Ġ183": 6323,
      "Ġ184": 6324,
      "ĠAlf": 6325,
      "ĠAlso": 6326,
      "Ġgreatly": 6327,
      "Ġrestored": 6328,
      "Ġsecure": 6329,
      "ĠLeg": 6330,
      "Ġboats": 6331,
      "Ġstrongest": 6332,
      "Ġ61": 6333,
      "Ġ69": 6334,
      "Ġfloated": 6335,
      "lets": 6336,
      "ĠArgent": 6337,
      "ĠArnold": 6338,
      "Ġpromoted": 6339,
      "Ġprominent": 6340,
      "Ġpreserved": 6341,
      "Ġenters": 6342,
      "Ġcounter": 6343,
      "Ġ88": 6344,
      "Ġ800": 6345,
      "Ġforests": 6346,
      "Ġdresses": 6347,
      "Ġstealing": 6348,
      "Ġaccur": 6349,
      "Ġ95": 6350,
      "Ġ97": 6351,
      "Ġ99": 6352,
      "ĠAllen": 6353,
      "uggage": 6354,
      "Ġcharming": 6355,
      "Ġlargest": 6356,
      "Ġdesignation": 6357,
      "Ġdesignated": 6358,
      "Ġlightning": 6359,
      "Ġhopes": 6360,
      "Ġlocation": 6361,
      "Ġconsum": 6362,
      "Ġindic": 6363,
      "Ġappears": 6364,
      "Ġappearance": 6365,
      "Ġplanets": 6366,
      "Ġlegal": 6367,
      "Ġlegisl": 6368,
      "Ġresponse": 6369,
      "Ġtraining": 6370,
      "Ġbelief": 6371,
      "Ġtablet": 6372,
      "ĠMars": 6373,
      "Ġshaped": 6374,
      "Ġrabbits": 6375,
      "Ġwinning": 6376,
      "Ġhotel": 6377,
      "Ġsucceeded": 6378,
      "ĠRover": 6379,
      "Ġcandid": 6380,
      "Ġdepartment": 6381,
      "Ġadding": 6382,
      "Ġwindows": 6383,
      "Ġphosph": 6384,
      "Ġdancer": 6385,
      "Ġ158": 6386,
      "Ġassigned": 6387,
      "Ġgroups": 6388,
      "Ġfallen": 6389,
      "Ġcalcul": 6390,
      "ĠGerm": 6391,
      "Ġclasses": 6392,
      "ĠZoomy": 6393,
      "Ġbags": 6394,
      "Ġbarrel": 6395,
      "Ġparalle": 6396,
      "Ġedition": 6397,
      "Ġsplit": 6398,
      "Ġ1941": 6399,
      "Ġdanger": 6400,
      "Ġdefined": 6401,
      "Ġ179": 6402,
      "Ġcrept": 6403,
      "Ġsparkling": 6404,
      "ĠPoor": 6405,
      "Ġadmire": 6406,
      "Ġadminist": 6407,
      "Ġoccup": 6408,
      "Ġcrossing": 6409,
      "Ġoperation": 6410,
      "Ġpresented": 6411,
      "Ġbathrobe": 6412,
      "ĠIndies": 6413,
      "ĠIndian": 6414,
      "ĠBillboard": 6415,
      "Ġ1911": 6416,
      "Ġcollection": 6417,
      "Ġcollected": 6418,
      "ĠOrder": 6419,
      "Ġteams": 6420,
      "Ġsixth": 6421,
      "Ġcontrovers": 6422,
      "Ġattempted": 6423,
      "Ġreturning": 6424,
      "ĠFreddy": 6425,
      "Ġexperiment": 6426,
      "Ġrespectively": 6427,
      "Ġsilence": 6428,
      "Ġsoldier": 6429,
      "Ġhistor": 6430,
      "Ġrequire": 6431,
      "ĠManning": 6432,
      "Ġshirts": 6433,
      "Ġcompetition": 6434,
      "ĠSyd": 6435,
      "Ġcaptain": 6436,
      "Ġdemanded": 6437,
      "ĠPeople": 6438,
      "Ġtomatoes": 6439,
      "Ġwags": 6440,
      "ĠMeanwhile": 6441,
      "ĠCorps": 6442,
      "ĠCorpor": 6443,
      "ernational": 6444,
      "Ġconducted": 6445,
      "Ġdamage": 6446,
      "Ġdamaged": 6447,
      "ĠCaty": 6448,
      "Ġresponsib": 6449,
      "Ġticket": 6450,
      "Ġcorrespond": 6451,
      "Ġdigital": 6452,
      "Ġstructures": 6453,
      "Ġobserve": 6454,
      "Ġhanging": 6455,
      "errick": 6456,
      "Ġmailbox": 6457,
      "idae": 6458,
      "Ġpoems": 6459,
      "Ġautom": 6460,
      "ĠInter": 6461,
      "ĠInternational": 6462,
      "Ġrules": 6463,
      "ĠPresley": 6464,
      "Ġarrangement": 6465,
      "Ġresulting": 6466,
      "ĠGrandpa": 6467,
      "Ġtorn": 6468,
      "Ġpirate": 6469,
      "Ġmatches": 6470,
      "Ġnavig": 6471,
      "ĠAnth": 6472,
      "Ġpinch": 6473,
      "Ġgasped": 6474,
      "ĠSteve": 6475,
      "Ġmarching": 6476,
      "ĠSwed": 6477,
      "Ġcomplain": 6478,
      "Ġprecious": 6479,
      "Ġpeeked": 6480,
      "Ġdisplay": 6481,
      "Ġaudience": 6482,
      "Ġhunter": 6483,
      "Ġfrequ": 6484,
      "Ġpattern": 6485,
      "ĠNATO": 6486,
      "Ġfocused": 6487,
      "ĠLiberal": 6488,
      "Ġfearful": 6489,
      "Ġsurrounded": 6490,
      "Ġearthqu": 6491,
      "ĠVictoria": 6492,
      "Ġpolitical": 6493,
      "Ġabandoned": 6494,
      "Ġadjacent": 6495,
      "Ġrecommend": 6496,
      "Ġterminus": 6497,
      "Ġreference": 6498,
      "Ġscarf": 6499,
      "abelle": 6500,
      "Ġbeside": 6501,
      "ĠSquadron": 6502,
      "ĠJamie": 6503,
      "ĠCubey": 6504,
      "Ġdefinition": 6505,
      "ĠAviation": 6506,
      "ĠMurd": 6507,
      "ĠFleming": 6508,
      "Ġconverted": 6509,
      "Ġcricket": 6510,
      "Ġintersection": 6511,
      "Ġphilos": 6512,
      "Ġadvantage": 6513,
      "Ġemergency": 6514,
      "Ġchallenge": 6515,
      "Ġtarget": 6516,
      "Ġbreeze": 6517,
      "Ġcooked": 6518,
      "Ġmaximum": 6519,
      "ĠOlymp": 6520,
      "Ġlikely": 6521,
      "ĠJoseph": 6522,
      "Ġfinancial": 6523,
      "ĠCharles": 6524,
      "ĠVirgin": 6525,
      "ouncil": 6526,
      "Ġterrible": 6527,
      "ĠQuantrill": 6528,
      "yphoon": 6529,
      "Ġigloo": 6530,
      "Ġilleg": 6531,
      "Ġnervous": 6532,
      "ĠSheffield": 6533,
      "Ġrazor": 6534,
      "ĠCorporation": 6535,
      "\",": 6536,
      "22": 6537,
      "80": 6538,
      "BS": 6539,
      "DOT": 6540,
      "EFA": 6541,
      "GN": 6542,
      "Hg": 6543,
      "Mont": 6544,
      "SA": 6545,
      "Sam": 6546,
      "Tube": 6547,
      "Would": 6548,
      "Wait": 6549,
      "Yeah": 6550,
      "bel": 6551,
      "back": 6552,
      "band": 6553,
      "bai": 6554,
      "cked": 6555,
      "case": 6556,
      "chest": 6557,
      "dles": 6558,
      "eed": 6559,
      "ext": 6560,
      "egr": 6561,
      "fowl": 6562,
      "gard": 6563,
      "gian": 6564,
      "hr": 6565,
      "hab": 6566,
      "iar": 6567,
      "iÄĩ": 6568,
      "ka": 6569,
      "ko": 6570,
      "lus": 6571,
      "loy": 6572,
      "lock": 6573,
      "mas": 6574,
      "mble": 6575,
      "miss": 6576,
      "oir": 6577,
      "oint": 6578,
      "pm": 6579,
      "ply": 6580,
      "pire": 6581,
      "rm": 6582,
      "rat": 6583,
      "sit": 6584,
      "tle": 6585,
      "uil": 6586,
      "uic": 6587,
      "uable": 6588,
      "vin": 6589,
      "vity": 6590,
      "xible": 6591,
      "yon": 6592,
      "yro": 6593,
      "ygen": 6594,
      "Ã¤": 6595,
      "Ġ+": 6596,
      "Ġx": 6597,
      "Ġic": 6598,
      "Ġtug": 6599,
      "Ġtummy": 6600,
      "Ġsals": 6601,
      "Ġsens": 6602,
      "Ġsession": 6603,
      "Ġsenior": 6604,
      "Ġsizes": 6605,
      "Ġsuic": 6606,
      "Ġtheory": 6607,
      "Ġtherm": 6608,
      "Ġwishes": 6609,
      "instein": 6610,
      "Ġbon": 6611,
      "Ġbom": 6612,
      "Ġbud": 6613,
      "Ġbare": 6614,
      "Ġtoward": 6615,
      "Ġhus": 6616,
      "eron": 6617,
      "erve": 6618,
      "erce": 6619,
      "Ġfreed": 6620,
      "Ġori": 6621,
      "Ġopt": 6622,
      "Ġostr": 6623,
      "Ġoats": 6624,
      "itary": 6625,
      "itable": 6626,
      "Ġwaving": 6627,
      "Ġce": 6628,
      "Ġcore": 6629,
      "Ġcoc": 6630,
      "Ġcert": 6631,
      "ĠTot": 6632,
      "ĠTam": 6633,
      "ĠTop": 6634,
      "ĠTreat": 6635,
      "ĠTilly": 6636,
      "ĠTint": 6637,
      "Ġped": 6638,
      "Ġpad": 6639,
      "Ġpowers": 6640,
      "Ġdates": 6641,
      "Ġdaily": 6642,
      "Ġlic": 6643,
      "Ġlanes": 6644,
      "Ġlunar": 6645,
      "isc": 6646,
      "iser": 6647,
      "Ġmut": 6648,
      "Ġment": 6649,
      "Ġmort": 6650,
      "Ġmile": 6651,
      "Ġmention": 6652,
      "Ġmitochond": 6653,
      "arked": 6654,
      "atory": 6655,
      "atched": 6656,
      "onstr": 6657,
      "enburg": 6658,
      "omic": 6659,
      "ompl": 6660,
      "Ġhesit": 6661,
      "ilation": 6662,
      "oration": 6663,
      "ayne": 6664,
      "ĠSu": 6665,
      "ĠSen": 6666,
      "ĠSur": 6667,
      "ĠServ": 6668,
      "Ġgear": 6669,
      "Ġgreed": 6670,
      "Ġnur": 6671,
      "Ġnames": 6672,
      "Ġinn": 6673,
      "ĠinHg": 6674,
      "Ġthunder": 6675,
      "imer": 6676,
      "imated": 6677,
      "iminal": 6678,
      "Ġsaus": 6679,
      "Ġsack": 6680,
      "ĠHist": 6681,
      "ĠHav": 6682,
      "ĠHorn": 6683,
      "ĠHolly": 6684,
      "ĠHaj": 6685,
      "utation": 6686,
      "utenant": 6687,
      "icago": 6688,
      "eton": 6689,
      "elin": 6690,
      "irmed": 6691,
      "Ġerect": 6692,
      "owered": 6693,
      "ĠLay": 6694,
      "ĠLatin": 6695,
      "ĠHead": 6696,
      "acted": 6697,
      "amas": 6698,
      "ĠIB": 6699,
      "ĠIGN": 6700,
      "ĠBost": 6701,
      "Ġrisk": 6702,
      "Ġrival": 6703,
      "Ġonline": 6704,
      "Ġstable": 6705,
      "Ġstair": 6706,
      "Ġstating": 6707,
      "Ġstreets": 6708,
      "Ġbeans": 6709,
      "Ġyucky": 6710,
      "enth": 6711,
      "ĠAM": 6712,
      "ĠAmb": 6713,
      "ĠAvenue": 6714,
      "ĠApo": 6715,
      "ĠAaron": 6716,
      "Ġrevers": 6717,
      "Ġreef": 6718,
      "ĠMot": 6719,
      "ĠMic": 6720,
      "ĠMir": 6721,
      "ĠMov": 6722,
      "ĠOf": 6723,
      "ĠOh": 6724,
      "rier": 6725,
      "Ġforced": 6726,
      "Ġplat": 6727,
      "Ġplates": 6728,
      "sey": 6729,
      "lling": 6730,
      "unity": 6731,
      "Ġhadn": 6732,
      "urities": 6733,
      "Ġshamp": 6734,
      "Ġshadow": 6735,
      "echan": 6736,
      "uction": 6737,
      "rastruc": 6738,
      "Ġneither": 6739,
      "ĠJess": 6740,
      "Ġhappiest": 6741,
      "ryl": 6742,
      "ĠCR": 6743,
      "ĠChe": 6744,
      "ĠCour": 6745,
      "ĠCudi": 6746,
      "uls": 6747,
      "Ġseas": 6748,
      "Ġseats": 6749,
      "Ġselected": 6750,
      "ĠWal": 6751,
      "ĠWind": 6752,
      "umi": 6753,
      "asp": 6754,
      "ards": 6755,
      "olar": 6756,
      "Ġexit": 6757,
      "Ġexhibit": 6758,
      "Ġjav": 6759,
      "Ġjacket": 6760,
      "ĠDel": 6761,
      "ĠDark": 6762,
      "ĠDist": 6763,
      "ĠDomin": 6764,
      "Ġspong": 6765,
      "Ġspilled": 6766,
      "Ġalert": 6767,
      "Ġtheme": 6768,
      "opes": 6769,
      "ophy": 6770,
      "aysia": 6771,
      "ĠFoot": 6772,
      "ĠPupp": 6773,
      "ĠPayne": 6774,
      "thy": 6775,
      "thur": 6776,
      "agers": 6777,
      "Ġlem": 6778,
      "Ġleast": 6779,
      "Ġbye": 6780,
      "Ġhelpless": 6781,
      "embers": 6782,
      "ĠButton": 6783,
      "Ġnosy": 6784,
      "Ġnobody": 6785,
      "Ġscient": 6786,
      "Ġroar": 6787,
      "Ġroot": 6788,
      "Ġstared": 6789,
      "Ġstarfish": 6790,
      "Ġworms": 6791,
      "akti": 6792,
      "Ġconsequ": 6793,
      "asta": 6794,
      "ĠGus": 6795,
      "ĠGover": 6796,
      "Ġcho": 6797,
      "Ġchairs": 6798,
      "Ġchalk": 6799,
      "Ġchosen": 6800,
      "ĠNight": 6801,
      "ĠNBC": 6802,
      "Ġmeasure": 6803,
      "osity": 6804,
      "osaur": 6805,
      "Ġpride": 6806,
      "Ġprunes": 6807,
      "Ġabbot": 6808,
      "ocy": 6809,
      "ĠYouTube": 6810,
      "Ġbrighter": 6811,
      "Ġintens": 6812,
      "Ġintegr": 6813,
      "aval": 6814,
      "Ġtricks": 6815,
      "Ġbecomes": 6816,
      "Ġtwin": 6817,
      "Ġmoves": 6818,
      "Ġpopped": 6819,
      "Ġpoppy": 6820,
      "Ġprob": 6821,
      "iph": 6822,
      "ivity": 6823,
      "ĠKarn": 6824,
      "ĠKaren": 6825,
      "Ġswans": 6826,
      "ĠInstead": 6827,
      "Ġdeg": 6828,
      "Ġoffer": 6829,
      "Ġenvious": 6830,
      "Ġopin": 6831,
      "izard": 6832,
      "Ġfierce": 6833,
      "Ġevolved": 6834,
      "ĠUt": 6835,
      "ĠUEFA": 6836,
      "Ġcontest": 6837,
      "Ġcontem": 6838,
      "Ġcontained": 6839,
      "Ġcontributed": 6840,
      "ĠStone": 6841,
      "ĠStage": 6842,
      "ĠStef": 6843,
      "Ġacorn": 6844,
      "Ġjustice": 6845,
      "Ġuniverse": 6846,
      "ĠEverything": 6847,
      "Ġincorpor": 6848,
      "Ġcompar": 6849,
      "Ġwrist": 6850,
      "Ġchee": 6851,
      "Ġdisg": 6852,
      "ĠcouldnÃ¢": 6853,
      "Ġbuzz": 6854,
      "Ġimpurities": 6855,
      "Ġfinishing": 6856,
      "ĠAndrew": 6857,
      "Ġcred": 6858,
      "Ġcrime": 6859,
      "ĠChicago": 6860,
      "Ġglue": 6861,
      "Ġglowed": 6862,
      "Ġresisted": 6863,
      "ĠdonÃ¢": 6864,
      "Ġtrap": 6865,
      "Ġtrained": 6866,
      "Ġsnap": 6867,
      "ÅĵWhat": 6868,
      "Ġshares": 6869,
      "Ġattached": 6870,
      "Ġattended": 6871,
      "Ġattacked": 6872,
      "Ġ2016": 6873,
      "Ġkindness": 6874,
      "Ġhighlight": 6875,
      "ĠBrun": 6876,
      "Ġflexible": 6877,
      "ension": 6878,
      "Ġbeauty": 6879,
      "Ġ54": 6880,
      "Ġ185": 6881,
      "Ġrainfall": 6882,
      "Ġearned": 6883,
      "Ġfiref": 6884,
      "Ġsets": 6885,
      "Ġgreatest": 6886,
      "Ġrestaur": 6887,
      "Ġactions": 6888,
      "ĠJaney": 6889,
      "Ġimportance": 6890,
      "ĠArthur": 6891,
      "Ġlistening": 6892,
      "Ġrights": 6893,
      "Ġpulling": 6894,
      "Ġturning": 6895,
      "Ġtriangle": 6896,
      "Ġcounted": 6897,
      "Ġ75": 6898,
      "Ġ81": 6899,
      "Ġ84": 6900,
      "Ġsquadron": 6901,
      "Ġsqueezed": 6902,
      "Ġladyb": 6903,
      "stronom": 6904,
      "Ġcreating": 6905,
      "Ġdrinking": 6906,
      "Ġstudent": 6907,
      "Ġstudying": 6908,
      "Ġaccount": 6909,
      "Ġaccompl": 6910,
      "Ġbitter": 6911,
      "Ġcuts": 6912,
      "Ġpretends": 6913,
      "Ġcentre": 6914,
      "Ġcenturies": 6915,
      "Ġcras": 6916,
      "Ġzip": 6917,
      "Ġbrightly": 6918,
      "Ġintern": 6919,
      "Ġinterp": 6920,
      "Ġmovement": 6921,
      "Ġ1996": 6922,
      "Ġ1998": 6923,
      "Ġsupported": 6924,
      "Ġtaller": 6925,
      "otten": 6926,
      "Ġsym": 6927,
      "Ġsynt": 6928,
      "Ġminister": 6929,
      "Ġpolicy": 6930,
      "Ġplanted": 6931,
      "Ġrespond": 6932,
      "Ġfilming": 6933,
      "Ġconfirmed": 6934,
      "neath": 6935,
      "Ġrefus": 6936,
      "Ġrefres": 6937,
      "Ġreferred": 6938,
      "Ġ1965": 6939,
      "Ġ1966": 6940,
      "Ġ1967": 6941,
      "Ġ1969": 6942,
      "Ġclimbing": 6943,
      "Ġproduct": 6944,
      "Ġmixing": 6945,
      "ĠDef": 6946,
      "Ġdepart": 6947,
      "Ġgrowing": 6948,
      "Ġaddress": 6949,
      "Ġpotion": 6950,
      "ĠCloud": 6951,
      "Ġrevol": 6952,
      "Ġreceiving": 6953,
      "Ġ150": 6954,
      "Ġ152": 6955,
      "Ġinfrastruc": 6956,
      "Ġleads": 6957,
      "Ġfalling": 6958,
      "Ġ1977": 6959,
      "Ġ1979": 6960,
      "Ġorigin": 6961,
      "Ġanti": 6962,
      "Ġ1945": 6963,
      "Ġ1946": 6964,
      "Ġdefend": 6965,
      "Ġhumble": 6966,
      "Ġofficially": 6967,
      "Ġmemories": 6968,
      "Ġsailing": 6969,
      "Ġvaluable": 6970,
      "Ġ167": 6971,
      "Ġsimple": 6972,
      "Ġsimply": 6973,
      "Ġcrest": 6974,
      "Ġstandard": 6975,
      "Ġspoons": 6976,
      "Ġpracticing": 6977,
      "Ġ1955": 6978,
      "Ġwriters": 6979,
      "Ġpersonal": 6980,
      "Ġnapkin": 6981,
      "Ġmeetings": 6982,
      "Ġmenu": 6983,
      "ĠPrince": 6984,
      "Ġmainly": 6985,
      "Ġformation": 6986,
      "Ġbattleship": 6987,
      "Ġtypes": 6988,
      "Ġtypically": 6989,
      "ĠGroup": 6990,
      "Ġcommanded": 6991,
      "Ġgathering": 6992,
      "Ġadvanced": 6993,
      "Ġlabels": 6994,
      "Ġvolunt": 6995,
      "Ġvolume": 6996,
      "Ġchewing": 6997,
      "Ġrespectful": 6998,
      "ĠPhoe": 6999,
      "Ġsuccessfully": 7000,
      "fortable": 7001,
      "Ġwhistled": 7002,
      "Ġcowboy": 7003,
      "Ġcapture": 7004,
      "Ġfeeding": 7005,
      "Ġcourage": 7006,
      "Ġdemonstr": 7007,
      "Ġelectric": 7008,
      "ĠWilliams": 7009,
      "Ġreveals": 7010,
      "Ġviews": 7011,
      "ÅĵIÃ¢": 7012,
      "Ġtitled": 7013,
      "Ġsuffer": 7014,
      "ĠGeorgia": 7015,
      "Ġlamps": 7016,
      "Ġshrink": 7017,
      "ĠConf": 7018,
      "ĠConstitution": 7019,
      "Ġimagine": 7020,
      "ysis": 7021,
      "Ġcape": 7022,
      "ĠCentre": 7023,
      "Ġconstructed": 7024,
      "Ġpreviously": 7025,
      "ĠCommand": 7026,
      "ĠCommission": 7027,
      "ĠIII": 7028,
      "Ġrubbed": 7029,
      "ĠMalaysia": 7030,
      "Ġfailure": 7031,
      "Ġpatiently": 7032,
      "ĠMagazine": 7033,
      "Ġexamine": 7034,
      "Ġprimary": 7035,
      "Ġunlock": 7036,
      "Ġmassage": 7037,
      "Ġfederal": 7038,
      "Ġoxygen": 7039,
      "Ġcuddle": 7040,
      "Ġinstruments": 7041,
      "Ġarranged": 7042,
      "ĠPhilip": 7043,
      "ĠCameron": 7044,
      "ĠRecord": 7045,
      "Ġconvin": 7046,
      "ĠÃĹ": 7047,
      "ĠMelinda": 7048,
      "Ġwealthy": 7049,
      "ĠNickelod": 7050,
      "Ġinvestigate": 7051,
      "Ġcultural": 7052,
      "Ġdouble": 7053,
      "ĠLovers": 7054,
      "Ġanalysis": 7055,
      "Ġsequence": 7056,
      "ĠGeneral": 7057,
      "Ġorganisms": 7058,
      "Ġprivate": 7059,
      "Ġolives": 7060,
      "Ġheavily": 7061,
      "ĠSecond": 7062,
      "ĠSpring": 7063,
      "Ġrenamed": 7064,
      "Ġnegative": 7065,
      "ĠKeys": 7066,
      "Ġpermission": 7067,
      "Ġsuggestion": 7068,
      "Ġapproximately": 7069,
      "ĠOxford": 7070,
      "ĠItalian": 7071,
      "ĠDuMont": 7072,
      "ĠKeats": 7073,
      "Ġattractive": 7074,
      "Ġsubsequently": 7075,
      "Ġescaped": 7076,
      "works": 7077,
      "Ġwounded": 7078,
      "Ġbriefly": 7079,
      "Ġfisherman": 7080,
      "ĠSadly": 7081,
      "ĠStephen": 7082,
      "Ġdissip": 7083,
      "Ġassistant": 7084,
      "ĠTransport": 7085,
      "Ġmuffins": 7086,
      "oncÃ©": 7087,
      "ĠBeyoncÃ©": 7088,
      "ĠMexico": 7089,
      "Ġkilomet": 7090,
      "Ġscolded": 7091,
      "Ġuncomfortable": 7092,
      "Ġhypothes": 7093,
      "Ġhippo": 7094,
      "ĠSoutheast": 7095,
      "Ġscript": 7096,
      "Ġenforce": 7097,
      "ĠThanksg": 7098,
      "Ġimpatient": 7099,
      "ĠPrinceton": 7100,
      "Ġwickets": 7101,
      "ĠMoore": 7102,
      "Ġliquid": 7103,
      "Ġdoctors": 7104,
      "ĠWalsingham": 7105,
      "Ġleisure": 7106,
      "Ġlemonade": 7107,
      "Ġcontroversial": 7108,
      "ĠSydney": 7109,
      "ĠVirginia": 7110,
      "chestra": 7111,
      "Ġsalsa": 7112,
      "insteinium": 7113,
      "Ġhusband": 7114,
      "Ġorient": 7115,
      "Ġostrich": 7116,
      "ĠTintin": 7117,
      "Ġlicense": 7118,
      "Ġnurse": 7119,
      "ĠHollywood": 7120,
      "ĠHajj": 7121,
      "ĠBoston": 7122,
      "Ġshampoo": 7123,
      "Ġjavelin": 7124,
      "ĠDistrict": 7125,
      "ĠGovern": 7126,
      "ĠStefani": 7127,
      "Ġinfrastructure": 7128,
      "ĠPhoebe": 7129,
      "ĠNickelodeon": 7130,
      "'.": 7131,
      "21": 7132,
      "CP": 7133,
      "Dad": 7134,
      "FV": 7135,
      "Gee": 7136,
      "How": 7137,
      "MS": 7138,
      "Mum": 7139,
      "NP": 7140,
      "OC": 7141,
      "OS": 7142,
      "Will": 7143,
      "aind": 7144,
      "bt": 7145,
      "bar": 7146,
      "bile": 7147,
      "col": 7148,
      "eer": 7149,
      "ean": 7150,
      "eath": 7151,
      "eaked": 7152,
      "fit": 7153,
      "gar": 7154,
      "gra": 7155,
      "gers": 7156,
      "iac": 7157,
      "ius": 7158,
      "lan": 7159,
      "lav": 7160,
      "lied": 7161,
      "lined": 7162,
      "lines": 7163,
      "mo": 7164,
      "met": 7165,
      "mun": 7166,
      "nas": 7167,
      "oors": 7168,
      "rough": 7169,
      "rich": 7170,
      "rams": 7171,
      "ses": 7172,
      "ta": 7173,
      "town": 7174,
      "uing": 7175,
      "what": 7176,
      "ware": 7177,
      "wise": 7178,
      "water": 7179,
      "yond": 7180,
      "Ġâ": 7181,
      "Ġing": 7182,
      "Ġess": 7183,
      "Ġtucked": 7184,
      "Ġtiger": 7185,
      "Ġaim": 7186,
      "Ġsle": 7187,
      "Ġsir": 7188,
      "Ġsie": 7189,
      "Ġsna": 7190,
      "Ġsoul": 7191,
      "Ġsections": 7192,
      "Ġtheat": 7193,
      "Ġwishing": 7194,
      "Ġwreck": 7195,
      "Ġwizard": 7196,
      "inarian": 7197,
      "reme": 7198,
      "Ġbind": 7199,
      "Ġtoes": 7200,
      "Ġtoast": 7201,
      "Ġhip": 7202,
      "Ġhoop": 7203,
      "Ġfro": 7204,
      "Ġfought": 7205,
      "Ġfountain": 7206,
      "Ġfetch": 7207,
      "ita": 7208,
      "ito": 7209,
      "itude": 7210,
      "Ġwander": 7211,
      "Ġwandered": 7212,
      "Ġcases": 7213,
      "ĠTer": 7214,
      "ĠTues": 7215,
      "Ġdare": 7216,
      "Ġdual": 7217,
      "Ġdaisy": 7218,
      "Ġluggage": 7219,
      "isions": 7220,
      "Ġmaze": 7221,
      "Ġmechan": 7222,
      "atively": 7223,
      "Ġheels": 7224,
      "anth": 7225,
      "anation": 7226,
      "iling": 7227,
      "oric": 7228,
      "orial": 7229,
      "orious": 7230,
      "esc": 7231,
      "ĠSl": 7232,
      "ĠSong": 7233,
      "ĠSant": 7234,
      "ĠSex": 7235,
      "ĠSinn": 7236,
      "Ġgain": 7237,
      "Ġnec": 7238,
      "Ġinhab": 7239,
      "alf": 7240,
      "alions": 7241,
      "Ġthyro": 7242,
      "imet": 7243,
      "Ġsaves": 7244,
      "ĠHot": 7245,
      "ĠHard": 7246,
      "ĠHave": 7247,
      "ĠHym": 7248,
      "ĠHij": 7249,
      "lee": 7250,
      "uties": 7251,
      "Ġitems": 7252,
      "otional": 7253,
      "ici": 7254,
      "icted": 7255,
      "icial": 7256,
      "Ġeinsteinium": 7257,
      "ĠLos": 7258,
      "ĠLady": 7259,
      "ĠLanc": 7260,
      "ĠLord": 7261,
      "ĠLope": 7262,
      "ami": 7263,
      "stic": 7264,
      "standing": 7265,
      "igu": 7266,
      "ĠIÃ¢": 7267,
      "ĠIron": 7268,
      "ĠBur": 7269,
      "ĠBol": 7270,
      "ĠBus": 7271,
      "ĠBand": 7272,
      "ĠBang": 7273,
      "ĠBook": 7274,
      "ĠBuild": 7275,
      "Ġund": 7276,
      "Ġrot": 7277,
      "Ġrac": 7278,
      "Ġsty": 7279,
      "Ġstro": 7280,
      "Ġstack": 7281,
      "Ġbeyond": 7282,
      "ooke": 7283,
      "ooper": 7284,
      "Ġyaw": 7285,
      "ador": 7286,
      "adows": 7287,
      "adburn": 7288,
      "ĠAge": 7289,
      "ĠActor": 7290,
      "Ġrear": 7291,
      "Ġreaching": 7292,
      "Ġrevenue": 7293,
      "ĠMA": 7294,
      "ĠMes": 7295,
      "ĠMac": 7296,
      "ĠMos": 7297,
      "ĠMull": 7298,
      "ĠMale": 7299,
      "ĠMont": 7300,
      "ĠMason": 7301,
      "ĠMah": 7302,
      "ĠMaster": 7303,
      "ĠMTV": 7304,
      "ĠMerrick": 7305,
      "ĠOld": 7306,
      "ĠOff": 7307,
      "Ġshed": 7308,
      "Ġyouth": 7309,
      "Ġsob": 7310,
      "Ġsocks": 7311,
      "sea": 7312,
      "Ġweep": 7313,
      "ceived": 7314,
      "Ġisn": 7315,
      "Ġisol": 7316,
      "Ġshall": 7317,
      "terday": 7318,
      "Ġupgr": 7319,
      "Ġnoteb": 7320,
      "Ġanch": 7321,
      "Ġmoments": 7322,
      "rast": 7323,
      "rose": 7324,
      "ĠJason": 7325,
      "Ġhappiness": 7326,
      "Ġkitty": 7327,
      "ĠCm": 7328,
      "ĠCr": 7329,
      "ĠCra": 7330,
      "ĠCons": 7331,
      "ĠCath": 7332,
      "ĠCale": 7333,
      "ĠCont": 7334,
      "ĠCouncil": 7335,
      "ĠCaval": 7336,
      "uled": 7337,
      "ully": 7338,
      "ores": 7339,
      "iller": 7340,
      "Ġseag": 7341,
      "Ġsevere": 7342,
      "ĠWong": 7343,
      "aine": 7344,
      "asm": 7345,
      "asers": 7346,
      "Ġlosing": 7347,
      "ugos": 7348,
      "olic": 7349,
      "olitan": 7350,
      "Ġboots": 7351,
      "Ġgoals": 7352,
      "Ġjet": 7353,
      "ĠDam": 7354,
      "ĠDott": 7355,
      "ĠDaily": 7356,
      "Ġspac": 7357,
      "Ġspill": 7358,
      "Ġsport": 7359,
      "Ġalignment": 7360,
      "oper": 7361,
      "opsy": 7362,
      "indrops": 7363,
      "ushes": 7364,
      "Ġarmed": 7365,
      "change": 7366,
      "ĠFour": 7367,
      "ĠFCC": 7368,
      "ĠPear": 7369,
      "ĠPass": 7370,
      "ights": 7371,
      "thank": 7372,
      "Ġallow": 7373,
      "arky": 7374,
      "ĠEp": 7375,
      "ĠEff": 7376,
      "ĠEva": 7377,
      "Ġleague": 7378,
      "udo": 7379,
      "Ġcaval": 7380,
      "ĠRI": 7381,
      "ĠRay": 7382,
      "ĠRick": 7383,
      "ĠRache": 7384,
      "ĠRena": 7385,
      "Ġcanc": 7386,
      "ements": 7387,
      "istics": 7388,
      "Ġscore": 7389,
      "Ġsched": 7390,
      "Ġscoop": 7391,
      "Ġscooped": 7392,
      "Ġmanuf": 7393,
      "Ġworn": 7394,
      "Ġconstit": 7395,
      "Ġconstitution": 7396,
      "Ġconsec": 7397,
      "Ġcomic": 7398,
      "Ġcomet": 7399,
      "Ġago": 7400,
      "uster": 7401,
      "usting": 7402,
      "ĠGD": 7403,
      "ĠGa": 7404,
      "ĠGal": 7405,
      "ĠGib": 7406,
      "ĠGuitar": 7407,
      "ĠGanes": 7408,
      "ĠNorm": 7409,
      "ĠNord": 7410,
      "ĠNana": 7411,
      "Ġmeerk": 7412,
      "osh": 7413,
      "ept": 7414,
      "Ġprice": 7415,
      "Ġsomewhat": 7416,
      "Ġaboard": 7417,
      "ademy": 7418,
      "Ġcared": 7419,
      "Ġcarriage": 7420,
      "Ġotherwise": 7421,
      "ateg": 7422,
      "ples": 7423,
      "plane": 7424,
      "Ġnewly": 7425,
      "ocking": 7426,
      "Ġrank": 7427,
      "Ġbrushes": 7428,
      "Ġintro": 7429,
      "berto": 7430,
      "Ġdeck": 7431,
      "Ġdecade": 7432,
      "Ġdecides": 7433,
      "Ġfoundation": 7434,
      "ishop": 7435,
      "Ġsadness": 7436,
      "ortunity": 7437,
      "Ġflight": 7438,
      "Ġflame": 7439,
      "Ġflapped": 7440,
      "Ġtwink": 7441,
      "Ġmobile": 7442,
      "Ġpoking": 7443,
      "ĠKr": 7444,
      "ĠKir": 7445,
      "ĠKent": 7446,
      "ĠKap": 7447,
      "ĠKev": 7448,
      "Ġswall": 7449,
      "Ġswung": 7450,
      "Ġeveryday": 7451,
      "Ġoverjoy": 7452,
      "Ġoffers": 7453,
      "obi": 7454,
      "Ġpeaches": 7455,
      "ĠJoy": 7456,
      "Ġknowledge": 7457,
      "Ġthoughts": 7458,
      "Ġimage": 7459,
      "Ġusual": 7460,
      "Ġslipp": 7461,
      "Ġcontribut": 7462,
      "Ġcontaining": 7463,
      "Ġcontext": 7464,
      "Ġcontrast": 7465,
      "ĠStr": 7466,
      "anka": 7467,
      "Ġexplanation": 7468,
      "Ġballs": 7469,
      "odate": 7470,
      "Ġacids": 7471,
      "ilda": 7472,
      "Ġune": 7473,
      "ĠEveryday": 7474,
      "Ġunderneath": 7475,
      "Ġappeal": 7476,
      "Ġapprec": 7477,
      "Ġappoint": 7478,
      "Ġremix": 7479,
      "Ġremembers": 7480,
      "Ġcomplex": 7481,
      "Ġskip": 7482,
      "Ġskirt": 7483,
      "Ġthrust": 7484,
      "Ġafterwards": 7485,
      "Ġchecked": 7486,
      "Ġdisag": 7487,
      "Ġdishes": 7488,
      "Ġdismiss": 7489,
      "Ġburied": 7490,
      "Ġreduce": 7491,
      "Ġcriminal": 7492,
      "ĠChina": 7493,
      "Ġheading": 7494,
      "Ġshouldn": 7495,
      "Ġshoulders": 7496,
      "Ġdesk": 7497,
      "Ġdesire": 7498,
      "Ġdescend": 7499,
      "insula": 7500,
      "actic": 7501,
      "ÅĵYou": 7502,
      "ÅĵWhy": 7503,
      "Ġstaying": 7504,
      "veland": 7505,
      "Ġgrounds": 7506,
      "Ġserves": 7507,
      "ĠAtt": 7508,
      "ĠBristol": 7509,
      "ĠBradburn": 7510,
      "Ġfleet": 7511,
      "ĠSpec": 7512,
      "ĠSparky": 7513,
      "Ġforeign": 7514,
      "Ġdrag": 7515,
      "Ġdrawn": 7516,
      "Ġ47": 7517,
      "Ġ52": 7518,
      "Ġ55": 7519,
      "Ġ59": 7520,
      "Ġbreaking": 7521,
      "Ġmuscles": 7522,
      "Ġrains": 7523,
      "Ġfireplace": 7524,
      "ĠAlb": 7525,
      "Ġkeeping": 7526,
      "Ġbeds": 7527,
      "Ġrestore": 7528,
      "Ġsecurity": 7529,
      "ĠLeaf": 7530,
      "Ġworldwide": 7531,
      "Ġactress": 7532,
      "Ġretired": 7533,
      "Ġexpanded": 7534,
      "Ġ66": 7535,
      "inton": 7536,
      "Ġrockfowl": 7537,
      "attle": 7538,
      "ĠArk": 7539,
      "Ġcuriosity": 7540,
      "Ġmeaning": 7541,
      "Ġchildhood": 7542,
      "Ġtrips": 7543,
      "Ġpresents": 7544,
      "Ġ74": 7545,
      "Ġsquad": 7546,
      "Ġsquash": 7547,
      "Ġsteam": 7548,
      "ĠEmpire": 7549,
      "Ġmessage": 7550,
      "Ġaccomm": 7551,
      "Ġbites": 7552,
      "Ġregiment": 7553,
      "Ġforgotten": 7554,
      "Ġdrivers": 7555,
      "ĠFlight": 7556,
      "ĠFlopsy": 7557,
      "Ġsignals": 7558,
      "Ġspots": 7559,
      "ĠYugos": 7560,
      "Ġperforming": 7561,
      "Ġsupplied": 7562,
      "Ġsymp": 7563,
      "Ġsynag": 7564,
      "Ġobl": 7565,
      "Ġobvious": 7566,
      "Ġinviting": 7567,
      "Ġplanning": 7568,
      "Ġmissile": 7569,
      "Ġ102": 7570,
      "Ġ103": 7571,
      "Ġextrem": 7572,
      "ĠNews": 7573,
      "Ġwooden": 7574,
      "Ġfilthy": 7575,
      "engers": 7576,
      "Ġalongside": 7577,
      "Ġdistant": 7578,
      "Ġunderstanding": 7579,
      "Ġreflect": 7580,
      "Ġ1961": 7581,
      "Ġrivers": 7582,
      "Ġproducer": 7583,
      "Ġrecords": 7584,
      "Ġgrows": 7585,
      "Ġgrowth": 7586,
      "Ġgrowling": 7587,
      "Ġswinging": 7588,
      "Ġlearns": 7589,
      "Ġseconds": 7590,
      "Ġ05": 7591,
      "Ġsubstant": 7592,
      "Ġsubmar": 7593,
      "Ġpotato": 7594,
      "Ġpotatoes": 7595,
      "ĠClub": 7596,
      "ĠClinton": 7597,
      "iants": 7598,
      "Ġreceive": 7599,
      "Ġreceives": 7600,
      "Ġfreeze": 7601,
      "Ġfreezer": 7602,
      "Ġsolo": 7603,
      "Ġsolid": 7604,
      "Ġsolved": 7605,
      "Ġsolution": 7606,
      "ĠJenna": 7607,
      "ĠJennie": 7608,
      "Ġconcer": 7609,
      "Ġorigins": 7610,
      "ĠScient": 7611,
      "ĠSharing": 7612,
      "Ġprotagonist": 7613,
      "Ġants": 7614,
      "Ġdinosaur": 7615,
      "Ġroads": 7616,
      "Ġorganize": 7617,
      "aha": 7618,
      "ĠAmericans": 7619,
      "Ġ1947": 7620,
      "icts": 7621,
      "Ġmemory": 7622,
      "ĠByrd": 7623,
      "Ġterm": 7624,
      "Ġsparkled": 7625,
      "Ġ1951": 7626,
      "Ġ1957": 7627,
      "Ġadmitted": 7628,
      "Ġpersonnel": 7629,
      "Ġmouths": 7630,
      "ifteen": 7631,
      "Ġengines": 7632,
      "Ġengaged": 7633,
      "Ġoperating": 7634,
      "Ġhonor": 7635,
      "Ġpetals": 7636,
      "Ġefforts": 7637,
      "Ġraising": 7638,
      "Ġraindrops": 7639,
      "Ġbalancing": 7640,
      "Ġdirected": 7641,
      "ĠMumma": 7642,
      "ĠMumbai": 7643,
      "ĠPruss": 7644,
      "Ġvillages": 7645,
      "Ġinterested": 7646,
      "Ġbeneath": 7647,
      "Ġ1981": 7648,
      "ĠIndust": 7649,
      "Ġclubs": 7650,
      "Ġestimated": 7651,
      "ĠAdam": 7652,
      "ĠPlan": 7653,
      "Ġapproval": 7654,
      "...": 7655,
      "Ġ1910": 7656,
      "Ġcollege": 7657,
      "Ġ1932": 7658,
      "Ġ1937": 7659,
      "Ġ1939": 7660,
      "Ġreviewers": 7661,
      "Ġconsider": 7662,
      "cester": 7663,
      "Ġavoid": 7664,
      "Ġbegged": 7665,
      "Ġbegins": 7666,
      "Ġadvice": 7667,
      "Ġreturns": 7668,
      "Ġlabel": 7669,
      "Ġfactors": 7670,
      "Ġsystems": 7671,
      "Ġeraser": 7672,
      "Ġsilent": 7673,
      "Ġnorthwest": 7674,
      "Ġmanagement": 7675,
      "Ġcosts": 7676,
      "Ġancest": 7677,
      "Ġsprint": 7678,
      "ĠPolish": 7679,
      "Ġmistakes": 7680,
      "Ġorders": 7681,
      "Ġordinary": 7682,
      "Ġcompetitions": 7683,
      "Ġsquirrels": 7684,
      "Ġstraw": 7685,
      "Ġshots": 7686,
      "Ġprior": 7687,
      "stitute": 7688,
      "ĠAmong": 7689,
      "ĠMcGee": 7690,
      "Ġprogramme": 7691,
      "Ġelections": 7692,
      "Ġissues": 7693,
      "Ġopportunity": 7694,
      "Ġversions": 7695,
      "ĠSea": 7696,
      "ĠChristianity": 7697,
      "Ġtuna": 7698,
      "Ġpuzzles": 7699,
      "ĠMeg": 7700,
      "ĠCenter": 7701,
      "ĠDarryl": 7702,
      "ĠCommittee": 7703,
      "Ġinsert": 7704,
      "Ġrubber": 7705,
      "ertainment": 7706,
      "Ġsources": 7707,
      "Ġwipe": 7708,
      "Ġinitial": 7709,
      "Ġroughly": 7710,
      "Ġrails": 7711,
      "Ġrailway": 7712,
      "Ġshopkeeper": 7713,
      "Ġ287": 7714,
      "Ġpuddles": 7715,
      "ĠRedux": 7716,
      "ĠRobin": 7717,
      "ĠRobby": 7718,
      "Ġscrubbed": 7719,
      "clone": 7720,
      "Ġhanger": 7721,
      "ĠAguil": 7722,
      "ĠArticle": 7723,
      "Ġstrengthen": 7724,
      "Ġaffil": 7725,
      "Ġdiameter": 7726,
      "Ġzoomed": 7727,
      "Ġneighbour": 7728,
      "Ġautobi": 7729,
      "Ġfemales": 7730,
      "Ġmaterials": 7731,
      "ĠSocial": 7732,
      "Ġringing": 7733,
      "Ġstrip": 7734,
      "ĠMinister": 7735,
      "Ġactivity": 7736,
      "Ġliterature": 7737,
      "ĠÂ£": 7738,
      "Ġhorns": 7739,
      "Ġcuddled": 7740,
      "ĠSims": 7741,
      "Ġyoga": 7742,
      "Ġcomfortable": 7743,
      "Ġ1901": 7744,
      "Ġgrandpa": 7745,
      "Ġstrangers": 7746,
      "ĠBlacklock": 7747,
      "Ġpleaded": 7748,
      "Ġclaims": 7749,
      "Ġinjury": 7750,
      "Ġstamps": 7751,
      "ĠRomanian": 7752,
      "Ġfolded": 7753,
      "Ġfolding": 7754,
      "Ġbroadcast": 7755,
      "Ġentirely": 7756,
      "Ġvehicle": 7757,
      "Ġstatue": 7758,
      "ĠMartin": 7759,
      "ĠPremier": 7760,
      "Ġchalleng": 7761,
      "Ġcolonial": 7762,
      "Ġrepairman": 7763,
      "Ġcriticized": 7764,
      "Ġcurrently": 7765,
      "Ġdolphins": 7766,
      "hetic": 7767,
      "Ġbillion": 7768,
      "Ġcyclone": 7769,
      "Ġpatterns": 7770,
      "ĠMatilda": 7771,
      "ĠNASA": 7772,
      "Ġquarter": 7773,
      "Ġfocus": 7774,
      "ĠLouis": 7775,
      "Ġtexts": 7776,
      "Ġchemical": 7777,
      "ÅĵItÃ¢": 7778,
      "Ġtransportation": 7779,
      "Ġbenefit": 7780,
      "Ġharsh": 7781,
      "Ġolive": 7782,
      "Ġcubs": 7783,
      "Ġheavier": 7784,
      "ĠBetty": 7785,
      "Ġkilling": 7786,
      "ĠPortug": 7787,
      "Ġleaned": 7788,
      "Ġmeasured": 7789,
      "Ġpoetry": 7790,
      "Ġcontinuing": 7791,
      "Ġdistinctive": 7792,
      "Ġconcentrated": 7793,
      "Ġconcentration": 7794,
      "Ġdetails": 7795,
      "Ġduo": 7796,
      "Ġcabinet": 7797,
      "Ġgradu": 7798,
      "Ġbreeding": 7799,
      "Ġmethods": 7800,
      "Ġmotorcy": 7801,
      "Ġinstrumental": 7802,
      "ĠDemocratic": 7803,
      "ĠJapanese": 7804,
      "Ġfascinated": 7805,
      "Ġcolumns": 7806,
      "Ġsurrender": 7807,
      "Ġrescue": 7808,
      "Ġfrowned": 7809,
      "Ġproposal": 7810,
      "Ġrapidly": 7811,
      "Ġcamera": 7812,
      "ĠTuna": 7813,
      "ĠTelevision": 7814,
      "onnaissance": 7815,
      "Ġinspired": 7816,
      "ĠModern": 7817,
      "Ġarchit": 7818,
      "Ġarrested": 7819,
      "Ġchickens": 7820,
      "Ġadopted": 7821,
      "Ġacademic": 7822,
      "Ġsniffed": 7823,
      "ĠIslamic": 7824,
      "Ġoccasionally": 7825,
      "Ġturbines": 7826,
      "Ġcrib": 7827,
      "Ġlamb": 7828,
      "Ġgroceries": 7829,
      "ĠBala": 7830,
      "Ġresearch": 7831,
      "Ġveterinarian": 7832,
      "ĠGolak": 7833,
      "Ġtravelling": 7834,
      "Ġentrance": 7835,
      "Ġsatisfied": 7836,
      "Ġcurtain": 7837,
      "Ġdedicated": 7838,
      "ĠHenson": 7839,
      "Ġstomach": 7840,
      "Ġwithdra": 7841,
      "Ġassembled": 7842,
      "ĠCongress": 7843,
      "ĠFarmer": 7844,
      "Ġcomfy": 7845,
      "Ġstruggling": 7846,
      "Ġslightly": 7847,
      "Ġresidential": 7848,
      "ĠAlfie": 7849,
      "Ġlegislation": 7850,
      "Ġadministration": 7851,
      "Ġhistorical": 7852,
      "Ġautomobile": 7853,
      "ĠAnthony": 7854,
      "Ġfrequently": 7855,
      "Ġearthquake": 7856,
      "ĠTreaty": 7857,
      "ĠSuzy": 7858,
      "ĠService": 7859,
      "Ġgreedy": 7860,
      "ĠHaving": 7861,
      "Ġerectus": 7862,
      "ĠAMX": 7863,
      "ĠAmbrose": 7864,
      "ĠApollo": 7865,
      "ĠCourt": 7866,
      "ĠKarnan": 7867,
      "Ġdegree": 7868,
      "Ġopinion": 7869,
      "Ġfirefighters": 7870,
      "Ġrestaurant": 7871,
      "Ġladybug": 7872,
      "Ġresponded": 7873,
      "ĠConfeder": 7874,
      "Ġkilometres": 7875,
      "Ġhypothesis": 7876,
      "ainder": 7877,
      "ĠTuesday": 7878,
      "ĠSexiest": 7879,
      "ĠSinnoh": 7880,
      "ĠHymir": 7881,
      "ĠLopez": 7882,
      "Ġyawned": 7883,
      "ĠMuller": 7884,
      "Ġisolated": 7885,
      "Ġnotebook": 7886,
      "ĠCaleb": 7887,
      "ĠCavalry": 7888,
      "Ġseagull": 7889,
      "ĠDottie": 7890,
      "Ġcavalry": 7891,
      "ĠRachel": 7892,
      "ĠRenaissance": 7893,
      "ĠGanesha": 7894,
      "ĠKevin": 7895,
      "Ġoverjoyed": 7896,
      "Ġaccommodate": 7897,
      "Ġextremely": 7898,
      "ĠAguilera": 7899,
      "And": 7900,
      "Bang": 7901,
      "ER": 7902,
      "Ex": 7903,
      "FL": 7904,
      "He": 7905,
      "LA": 7906,
      "MA": 7907,
      "Max": 7908,
      "PA": 7909,
      "RC": 7910,
      "Re": 7911,
      "TC": 7912,
      "Welc": 7913,
      "Yay": 7914,
      "away": 7915,
      "bon": 7916,
      "bing": 7917,
      "book": 7918,
      "cus": 7919,
      "cakes": 7920,
      "caster": 7921,
      "cuse": 7922,
      "down": 7923,
      "dite": 7924,
      "dium": 7925,
      "eak": 7926,
      "eenth": 7927,
      "fly": 7928,
      "flect": 7929,
      "gn": 7930,
      "hld": 7931,
      "hill": 7932,
      "hol": 7933,
      "hap": 7934,
      "horn": 7935,
      "iot": 7936,
      "kon": 7937,
      "kins": 7938,
      "lain": 7939,
      "lers": 7940,
      "lings": 7941,
      "loe": 7942,
      "lusion": 7943,
      "mi": 7944,
      "mark": 7945,
      "mers": 7946,
      "mates": 7947,
      "mont": 7948,
      "master": 7949,
      "named": 7950,
      "oa": 7951,
      "ox": 7952,
      "ole": 7953,
      "ping": 7954,
      "rate": 7955,
      "rise": 7956,
      "ront": 7957,
      "rÃ©": 7958,
      "uition": 7959,
      "vy": 7960,
      "vet": 7961,
      "vania": 7962,
      "wr": 7963,
      "wight": 7964,
      "writ": 7965,
      "yu": 7966,
      "yes": 7967,
      "zier": 7968,
      "Ãĥ": 7969,
      "ĠÎ": 7970,
      "Ġil": 7971,
      "Ġid": 7972,
      "Ġver": 7973,
      "ĪĴ": 7974,
      "hess": 7975,
      "Ġtv": 7976,
      "Ġtent": 7977,
      "Ġtend": 7978,
      "Ġties": 7979,
      "Ġtape": 7980,
      "Ġaimed": 7981,
      "Ġsi": 7982,
      "Ġsch": 7983,
      "Ġsale": 7984,
      "Ġsales": 7985,
      "Ġwit": 7986,
      "nded": 7987,
      "ndenburg": 7988,
      "eding": 7989,
      "ini": 7990,
      "inter": 7991,
      "inks": 7992,
      "reland": 7993,
      "Ġbin": 7994,
      "Ġbound": 7995,
      "Ġbass": 7996,
      "Ġbaked": 7997,
      "Ġtone": 7998,
      "Ġhi": 7999,
      "Ġhind": 8000,
      "Ġhate": 8001,
      "Ġhorm": 8002,
      "ĠhPa": 8003,
      "eridge": 8004,
      "ersey": 8005,
      "Ġfant": 8006,
      "Ġfals": 8007,
      "Ġfert": 8008,
      "Ġfash": 8009,
      "Ġfiction": 8010,
      "Ġfolk": 8011,
      "Ġfighters": 8012,
      "Ġfirm": 8013,
      "Ġfestival": 8014,
      "Ġfifteen": 8015,
      "Ġoat": 8016,
      "iter": 8017,
      "itone": 8018,
      "itched": 8019,
      "itual": 8020,
      "itimate": 8021,
      "Ġcord": 8022,
      "ouch": 8023,
      "oustic": 8024,
      "ĠTA": 8025,
      "ĠTro": 8026,
      "ĠTess": 8027,
      "Ġpure": 8028,
      "Ġpage": 8029,
      "Ġpail": 8030,
      "Ġpier": 8031,
      "Ġppm": 8032,
      "Ġda": 8033,
      "Ġdial": 8034,
      "Ġdried": 8035,
      "Ġdise": 8036,
      "Ġlisted": 8037,
      "Ġmate": 8038,
      "Ġmart": 8039,
      "Ġmask": 8040,
      "Ġmales": 8041,
      "Ġmbar": 8042,
      "arr": 8043,
      "atri": 8044,
      "atures": 8045,
      "ingu": 8046,
      "ington": 8047,
      "enn": 8048,
      "omo": 8049,
      "anna": 8050,
      "annel": 8051,
      "ayer": 8052,
      "ĠSan": 8053,
      "ĠSle": 8054,
      "ĠSound": 8055,
      "ĠSav": 8056,
      "ĠSub": 8057,
      "ĠSix": 8058,
      "ĠSever": 8059,
      "ĠSki": 8060,
      "ĠSeries": 8061,
      "ĠSNP": 8062,
      "Ġgri": 8063,
      "Ġgreet": 8064,
      "idic": 8065,
      "Ġnick": 8066,
      "Ġinner": 8067,
      "Ġinnings": 8068,
      "Ġhabit": 8069,
      "alo": 8070,
      "iments": 8071,
      "imney": 8072,
      "Ġsam": 8073,
      "ĠHa": 8074,
      "ĠHu": 8075,
      "ĠHug": 8076,
      "ĠHop": 8077,
      "ĠHag": 8078,
      "ĠHab": 8079,
      "ĠHans": 8080,
      "leg": 8081,
      "utter": 8082,
      "otter": 8083,
      "icles": 8084,
      "icient": 8085,
      "ela": 8086,
      "eled": 8087,
      "elen": 8088,
      "elve": 8089,
      "elope": 8090,
      "iral": 8091,
      "iration": 8092,
      "owa": 8093,
      "owland": 8094,
      "ĠLP": 8095,
      "ĠLar": 8096,
      "ĠLam": 8097,
      "ĠLong": 8098,
      "ĠLie": 8099,
      "ĠLaut": 8100,
      "acity": 8101,
      "acific": 8102,
      "amin": 8103,
      "sters": 8104,
      "stown": 8105,
      "stand": 8106,
      "stones": 8107,
      "stairs": 8108,
      "ĠIll": 8109,
      "ĠImb": 8110,
      "ĠIzzy": 8111,
      "ĠIOC": 8112,
      "ĠIreland": 8113,
      "ĠIowa": 8114,
      "ĠBom": 8115,
      "ĠBir": 8116,
      "ĠBoy": 8117,
      "ĠBigg": 8118,
      "ĠBuzz": 8119,
      "ĠBern": 8120,
      "ĠBalt": 8121,
      "ĠBowl": 8122,
      "Ġupper": 8123,
      "Ġrat": 8124,
      "Ġray": 8125,
      "Ġrow": 8126,
      "Ġrush": 8127,
      "Ġrural": 8128,
      "Ġroles": 8129,
      "Ġrider": 8130,
      "Ġonions": 8131,
      "Ġstim": 8132,
      "Ġstare": 8133,
      "vey": 8134,
      "entiet": 8135,
      "ader": 8136,
      "adier": 8137,
      "ĠAz": 8138,
      "ĠAph": 8139,
      "ĠAva": 8140,
      "ĠArab": 8141,
      "Ġreven": 8142,
      "ĠMD": 8143,
      "ĠMi": 8144,
      "ĠMuch": 8145,
      "ĠMother": 8146,
      "ĠMans": 8147,
      "ĠMuseum": 8148,
      "ĠOt": 8149,
      "ĠOber": 8150,
      "ĠOcc": 8151,
      "Ġplucked": 8152,
      "Ġplums": 8153,
      "Ġweb": 8154,
      "unately": 8155,
      "urst": 8156,
      "urally": 8157,
      "Ġasp": 8158,
      "Ġaside": 8159,
      "Ġassembly": 8160,
      "Ġwhales": 8161,
      "Ġwhisp": 8162,
      "Ġshift": 8163,
      "Ġshakti": 8164,
      "Ġlip": 8165,
      "endary": 8166,
      "ounds": 8167,
      "Ġdoors": 8168,
      "rove": 8169,
      "rodite": 8170,
      "Ġneut": 8171,
      "ĠJour": 8172,
      "Ġkit": 8173,
      "rystal": 8174,
      "ĠCir": 8175,
      "ĠCher": 8176,
      "ĠCory": 8177,
      "ĠCred": 8178,
      "ĠCarm": 8179,
      "ĠCrit": 8180,
      "ĠCumber": 8181,
      "ĠCrystal": 8182,
      "illas": 8183,
      "Ġthereby": 8184,
      "ĠWell": 8185,
      "ĠWild": 8186,
      "ĠWins": 8187,
      "ĠWestern": 8188,
      "romos": 8189,
      "umed": 8190,
      "asy": 8191,
      "asures": 8192,
      "Ġexact": 8193,
      "Ġexisted": 8194,
      "Ġexisting": 8195,
      "Ġjunction": 8196,
      "ĠDie": 8197,
      "ĠDown": 8198,
      "ĠDang": 8199,
      "ĠDory": 8200,
      "ĠDire": 8201,
      "ĠDiam": 8202,
      "ĠDisting": 8203,
      "ĠDisco": 8204,
      "ĠDNA": 8205,
      "ĠDwight": 8206,
      "Ġspaces": 8207,
      "Ġspending": 8208,
      "Ġalright": 8209,
      "Ġoutp": 8210,
      "Ġoutfit": 8211,
      "Ġarc": 8212,
      "chang": 8213,
      "child": 8214,
      "ĠFA": 8215,
      "ĠFer": 8216,
      "ĠFly": 8217,
      "ĠFore": 8218,
      "ĠPu": 8219,
      "ĠPic": 8220,
      "ĠPas": 8221,
      "ĠPand": 8222,
      "ĠPerson": 8223,
      "ĠProduc": 8224,
      "ĠPasta": 8225,
      "ĠPacific": 8226,
      "agn": 8227,
      "agan": 8228,
      "agement": 8229,
      "esty": 8230,
      "estone": 8231,
      "ĠEnd": 8232,
      "ĠEgy": 8233,
      "ĠRom": 8234,
      "ĠRet": 8235,
      "ĠRub": 8236,
      "ĠRail": 8237,
      "ĠRyle": 8238,
      "ĠRosa": 8239,
      "ellow": 8240,
      "ellent": 8241,
      "ellers": 8242,
      "Ġcanal": 8243,
      "Ġclaps": 8244,
      "Ġclaws": 8245,
      "Ġclapping": 8246,
      "Ġvous": 8247,
      "Ġvirt": 8248,
      "Ġknock": 8249,
      "Ġknife": 8250,
      "iega": 8251,
      "Ġscra": 8252,
      "Ġscare": 8253,
      "Ġstaring": 8254,
      "Ġworst": 8255,
      "Ġworth": 8256,
      "Ġcomedy": 8257,
      "Ġagree": 8258,
      "ĠGre": 8259,
      "ĠGry": 8260,
      "ĠGall": 8261,
      "ĠGab": 8262,
      "ĠGive": 8263,
      "ĠGord": 8264,
      "ĠGym": 8265,
      "Ġchub": 8266,
      "Ġchimney": 8267,
      "Ġchromos": 8268,
      "ĠNap": 8269,
      "ĠNear": 8270,
      "ĠNov": 8271,
      "ĠNik": 8272,
      "ĠNina": 8273,
      "ĠNancy": 8274,
      "Ġfeature": 8275,
      "apore": 8276,
      "fully": 8277,
      "osion": 8278,
      "Ġprinted": 8279,
      "Ġpredic": 8280,
      "Ġcart": 8281,
      "Ġcarrier": 8282,
      "getic": 8283,
      "Ġorbit": 8284,
      "Ġ1900": 8285,
      "ometer": 8286,
      "achiop": 8287,
      "ctic": 8288,
      "ctions": 8289,
      "Ġpref": 8290,
      "ockey": 8291,
      "Ġrang": 8292,
      "Ġranch": 8293,
      "Ġbrachiop": 8294,
      "artney": 8295,
      "Ġgrades": 8296,
      "Ġgranted": 8297,
      "ishment": 8298,
      "Ġtrucks": 8299,
      "Ġflat": 8300,
      "Ġflow": 8301,
      "Ġflutter": 8302,
      "Ġtwig": 8303,
      "Ġtwelve": 8304,
      "Ġtwentiet": 8305,
      "Ġexcellent": 8306,
      "Ġblog": 8307,
      "Ġblowing": 8308,
      "Ġpole": 8309,
      "Ġpoked": 8310,
      "Ġprove": 8311,
      "Ġproceeded": 8312,
      "ĠKn": 8313,
      "ĠKand": 8314,
      "ĠKau": 8315,
      "ĠKFV": 8316,
      "ĠInv": 8317,
      "Ġdeaf": 8318,
      "Ġkeen": 8319,
      "Ġens": 8320,
      "izens": 8321,
      "Ġspecim": 8322,
      "Ġpeaked": 8323,
      "Ġanywhere": 8324,
      "gee": 8325,
      "ector": 8326,
      "Ġstruck": 8327,
      "Ġstruct": 8328,
      "Ġusers": 8329,
      "Ġslap": 8330,
      "Ġslip": 8331,
      "Ġsliding": 8332,
      "ĠStud": 8333,
      "ĠStory": 8334,
      "Ġrunners": 8335,
      "Ġsuns": 8336,
      "ankara": 8337,
      "iana": 8338,
      "Ġlearnt": 8339,
      "Ġacted": 8340,
      "Ġunf": 8341,
      "Ġuns": 8342,
      "Ġunivers": 8343,
      "Ġunpack": 8344,
      "ĠEverybody": 8345,
      "Ġperman": 8346,
      "ĠâĢĺ": 8347,
      "Ġundert": 8348,
      "Ġ39": 8349,
      "Ġ300": 8350,
      "ogen": 8351,
      "ĠThree": 8352,
      "ĠThough": 8353,
      "ĠThrough": 8354,
      "Ġincline": 8355,
      "Ġappla": 8356,
      "Ġremainder": 8357,
      "Ġcompilation": 8358,
      "Ġski": 8359,
      "Ġthrilled": 8360,
      "Ġthrows": 8361,
      "Ġchef": 8362,
      "Ġends": 8363,
      "Ġdisb": 8364,
      "Ġdisaster": 8365,
      "ĠWeb": 8366,
      "ĠJohnson": 8367,
      "Ġcrunch": 8368,
      "ĠChloe": 8369,
      "Ġglow": 8370,
      "Ġbears": 8371,
      "iously": 8372,
      "phis": 8373,
      "phia": 8374,
      "vention": 8375,
      "Ġdespite": 8376,
      "rences": 8377,
      "Ġhurting": 8378,
      "Ġclosing": 8379,
      "Ġtrail": 8380,
      "Ġsnake": 8381,
      "Ġsneez": 8382,
      "bey": 8383,
      "itionally": 8384,
      "ÅĵNo": 8385,
      "ÅĵThat": 8386,
      "Ġattend": 8387,
      "ĠLucas": 8388,
      "Thanks": 8389,
      "Ġletting": 8390,
      "Ġnowhere": 8391,
      "ĠBobbi": 8392,
      "Ġrecalled": 8393,
      "Ġworkers": 8394,
      "Ġreality": 8395,
      "Ġsingers": 8396,
      "ĠBrother": 8397,
      "ĠSpace": 8398,
      "athan": 8399,
      "Ġ41": 8400,
      "Ġ43": 8401,
      "Ġ48": 8402,
      "Ġownership": 8403,
      "Ġ181": 8404,
      "Ġrained": 8405,
      "Ġraining": 8406,
      "Ġdifference": 8407,
      "ixes": 8408,
      "ĠVo": 8409,
      "ĠVol": 8410,
      "Ġrested": 8411,
      "Ġtremb": 8412,
      "Ġtreasures": 8413,
      "Ġeleven": 8414,
      "Ġelected": 8415,
      "ĠLeices": 8416,
      "ĠUnfort": 8417,
      "Ġactual": 8418,
      "Ġretro": 8419,
      "Ġexpressed": 8420,
      "Ġ600": 8421,
      "Ġwondering": 8422,
      "Ġourselves": 8423,
      "Ġmagn": 8424,
      "redients": 8425,
      "ĠArm": 8426,
      "attery": 8427,
      "ĠRevel": 8428,
      "ĠReflect": 8429,
      "Ġwarmth": 8430,
      "Ġturnp": 8431,
      "Ġtripped": 8432,
      "Ġpreservation": 8433,
      "Ġsweater": 8434,
      "Ġsweets": 8435,
      "Ġpurs": 8436,
      "Ġ71": 8437,
      "Ġ72": 8438,
      "Ġ700": 8439,
      "Ġreads": 8440,
      "ĠEmmy": 8441,
      "Ġfourte": 8442,
      "Ġreport": 8443,
      "Ġdrought": 8444,
      "amese": 8445,
      "Ġstudied": 8446,
      "Ġaccomp": 8447,
      "Ġaccidents": 8448,
      "Ġpassengers": 8449,
      "Ġguests": 8450,
      "Ġgenres": 8451,
      "Ġsticky": 8452,
      "Ġmarsh": 8453,
      "Ġdesigner": 8454,
      "Ġsignal": 8455,
      "ĠYear": 8456,
      "ĠYears": 8457,
      "ĠYelp": 8458,
      "Ġlights": 8459,
      "Ġinteract": 8460,
      "Ġintersect": 8461,
      "Ġinterchange": 8462,
      "Ġ1991": 8463,
      "Ġ1994": 8464,
      "Ġ1995": 8465,
      "Ġ1999": 8466,
      "Ġtowns": 8467,
      "Ġindeed": 8468,
      "Ġtowels": 8469,
      "Ġvisiting": 8470,
      "Ġappearances": 8471,
      "Ġextension": 8472,
      "Ġfilms": 8473,
      "Ġfilmed": 8474,
      "ĠMarie": 8475,
      "Ġdisturb": 8476,
      "Ġconfident": 8477,
      "Ġconfront": 8478,
      "Ġsits": 8479,
      "Ġpublishing": 8480,
      "Ġ1964": 8481,
      "ĠRolling": 8482,
      "Ġstartled": 8483,
      "cript": 8484,
      "Ġcandles": 8485,
      "ĠDean": 8486,
      "ĠDeal": 8487,
      "Ġdepth": 8488,
      "Ġdepos": 8489,
      "Ġgrowled": 8490,
      "Ġkeyboard": 8491,
      "Ġ08": 8492,
      "Ġsubm": 8493,
      "Ġsubs": 8494,
      "Ġsubst": 8495,
      "ĠClara": 8496,
      "ĠClass": 8497,
      "Ġ159": 8498,
      "Ġleadership": 8499,
      "nesses": 8500,
      "aford": 8501,
      "Ġlasted": 8502,
      "Ġclassroom": 8503,
      "Ġ1973": 8504,
      "Ġ1976": 8505,
      "ĠZoma": 8506,
      "ĠHoward": 8507,
      "Ġsolitary": 8508,
      "ĠScience": 8509,
      "ĠShankara": 8510,
      "Ġbells": 8511,
      "Ġyards": 8512,
      "Ġroadway": 8513,
      "Ġorganization": 8514,
      "Ġ123": 8515,
      "Ġartistic": 8516,
      "Ġartillery": 8517,
      "Ġdescribe": 8518,
      "Ġemotional": 8519,
      "Ġ1942": 8520,
      "Ġ1943": 8521,
      "Ġtransition": 8522,
      "Ġclaimed": 8523,
      "Ġdefences": 8524,
      "Ġpaintings": 8525,
      "Ġcups": 8526,
      "Ġcupcakes": 8527,
      "Ġbandage": 8528,
      "Ġrelev": 8529,
      "ĠWarner": 8530,
      "Ġ168": 8531,
      "ipping": 8532,
      "Ġprovides": 8533,
      "Ġduckling": 8534,
      "ĠwasnÃ¢": 8535,
      "Ġ1952": 8536,
      "Ġadmiring": 8537,
      "spect": 8538,
      "ĠElle": 8539,
      "ĠElmo": 8540,
      "ĠIsabelle": 8541,
      "Ġoperated": 8542,
      "Ġoperations": 8543,
      "Ġquietly": 8544,
      "Ġhoriz": 8545,
      "ĠBeaver": 8546,
      "Ġdirector": 8547,
      "ropolitan": 8548,
      "Ġvillagers": 8549,
      "Ġ1984": 8550,
      "Ġbuckets": 8551,
      "Ġmilitia": 8552,
      "ĠAdd": 8553,
      "ĠAdva": 8554,
      "ĠAdvis": 8555,
      "Ġ130": 8556,
      "ervatives": 8557,
      "Ġvariety": 8558,
      "Ġvariants": 8559,
      "Ġ1915": 8560,
      "Ġannoy": 8561,
      "Ġmodels": 8562,
      "Ġpossessed": 8563,
      "ĠOrig": 8564,
      "ĠOrange": 8565,
      "ĠCarter": 8566,
      "Ġadvance": 8567,
      "Ġcontrolled": 8568,
      "Ġlabor": 8569,
      "Ġarmour": 8570,
      "Ġkisses": 8571,
      "ĠColeridge": 8572,
      "Ġcritical": 8573,
      "Ġgifts": 8574,
      "Ġhistorian": 8575,
      "ĠPolice": 8576,
      "Ġcommunications": 8577,
      "Ġsentenced": 8578,
      "ĠSomeone": 8579,
      "Ġrequest": 8580,
      "Ġmotiv": 8581,
      "ĠSynt": 8582,
      "Ġtesting": 8583,
      "Ġtubes": 8584,
      "Ġwraps": 8585,
      "Ġprize": 8586,
      "Ġdestr": 8587,
      "ĠAmi": 8588,
      "Ġislands": 8589,
      "Ġshortly": 8590,
      "ĠPei": 8591,
      "Ġcombined": 8592,
      "Ġcombination": 8593,
      "Ġattacking": 8594,
      "Ġopposition": 8595,
      "Ġsuits": 8596,
      "ĠSmart": 8597,
      "Ġshrimp": 8598,
      "Ġimagining": 8599,
      "ĠSeattle": 8600,
      "ĠBaramos": 8601,
      "ĠFox": 8602,
      "Ġcapacity": 8603,
      "Ġresults": 8604,
      "Ġdifficulties": 8605,
      "nessee": 8606,
      "ĠXbox": 8607,
      "ĠSomething": 8608,
      "ĠMehld": 8609,
      "Ġmystery": 8610,
      "Ġeffectively": 8611,
      "Ġpenny": 8612,
      "Ġruining": 8613,
      "Ġconditions": 8614,
      "Ġsource": 8615,
      "Ġwiping": 8616,
      "Ġkingdom": 8617,
      "Ġdefeated": 8618,
      "Ġtickle": 8619,
      "Ġtickets": 8620,
      "Ġmulti": 8621,
      "Ġmultipl": 8622,
      "Ġsafety": 8623,
      "Ġarguing": 8624,
      "ĠParis": 8625,
      "ĠEdition": 8626,
      "ĠRedding": 8627,
      "ichaels": 8628,
      "Ġestablish": 8629,
      "ĠRichmond": 8630,
      "Ġunlike": 8631,
      "Ġdiscussed": 8632,
      "Ġtraditional": 8633,
      "Ġafford": 8634,
      "ĠCapital": 8635,
      "ĠPenn": 8636,
      "ĠPenelope": 8637,
      "ĠNorthern": 8638,
      "ĠNoriega": 8639,
      "Ġrecognize": 8640,
      "Ġpopulations": 8641,
      "Ġpalace": 8642,
      "Ġthreatened": 8643,
      "ĠBrandenburg": 8644,
      "Ġruler": 8645,
      "ĠMinogue": 8646,
      "Ġvocals": 8647,
      "castle": 8648,
      "Ġdivisional": 8649,
      "Ġreasonable": 8650,
      "Ġnewspapers": 8651,
      "Ġsettled": 8652,
      "ĠMcClain": 8653,
      "ĠMcCartney": 8654,
      "ylvania": 8655,
      "Ġwidened": 8656,
      "ĠArea": 8657,
      "Ġsignificantly": 8658,
      "Ġclaiming": 8659,
      "ĠPhiladel": 8660,
      "formation": 8661,
      "Ġbulb": 8662,
      "Ġbully": 8663,
      "Ġfunds": 8664,
      "Ġmedia": 8665,
      "Ġinjured": 8666,
      "ĠCambridge": 8667,
      "Ġcauses": 8668,
      "Ġpollination": 8669,
      "Ġproperly": 8670,
      "Ġrepresented": 8671,
      "Ġcitizens": 8672,
      "ĠSingapore": 8673,
      "ĠOlga": 8674,
      "Ġcolonies": 8675,
      "ĠUniontown": 8676,
      "Ġrepaired": 8677,
      "Ġguards": 8678,
      "Ġindustrial": 8679,
      "Ġcriticism": 8680,
      "uxury": 8681,
      "ĠTonya": 8682,
      "islative": 8683,
      "ĠPrize": 8684,
      "Ġdecorate": 8685,
      "Ġdecorations": 8686,
      "Ġquarrel": 8687,
      "Ġfamiliar": 8688,
      "Ġemployed": 8689,
      "burne": 8690,
      "Ġdoubt": 8691,
      "ĠHorse": 8692,
      "ĠLouise": 8693,
      "Ġfortified": 8694,
      "Ġfossil": 8695,
      "Ġpolitics": 8696,
      "ĠRepublicans": 8697,
      "Ġbombard": 8698,
      "Ġcube": 8699,
      "Ġdusty": 8700,
      "ĠSprings": 8701,
      "ĠBetween": 8702,
      "seek": 8703,
      "Ġsemi": 8704,
      "Ġexecutive": 8705,
      "Ġtricky": 8706,
      "Ġacquired": 8707,
      "Ġapplication": 8708,
      "Ġrecommended": 8709,
      "Ġcommissioned": 8710,
      "Ġcultures": 8711,
      "Ġbasic": 8712,
      "ĠTrain": 8713,
      "Ġeconomy": 8714,
      "Ġeconomic": 8715,
      "ĠBerlin": 8716,
      "ĠMemphis": 8717,
      "ĠJacob": 8718,
      "ĠCastle": 8719,
      "ĠWinter": 8720,
      "ĠWoodburne": 8721,
      "ĠGregorian": 8722,
      "Ġdeclined": 8723,
      "Ġdevast": 8724,
      "Ġsubsequent": 8725,
      "Ġparticipate": 8726,
      "Ġjournalist": 8727,
      "ographic": 8728,
      "ĠDemocrats": 8729,
      "Ġliner": 8730,
      "Ġrouting": 8731,
      "Ġathletes": 8732,
      "ĠEnter": 8733,
      "Ġventric": 8734,
      "Ġchirped": 8735,
      "osaurs": 8736,
      "Ġsurrendered": 8737,
      "Ġrecovering": 8738,
      "Ġpurposes": 8739,
      "Ġprofessors": 8740,
      "Ġaxe": 8741,
      "ĠHoly": 8742,
      "ĠAcademy": 8743,
      "ĠJava": 8744,
      "ĠJavier": 8745,
      "ĠRadio": 8746,
      "Ġvanished": 8747,
      "ĠCarolina": 8748,
      "Ġexperienced": 8749,
      "Ġceremonial": 8750,
      "Ġneighborhood": 8751,
      "ĠAfrica": 8752,
      "ĠAfrican": 8753,
      "load": 8754,
      "pherd": 8755,
      "Ġskeleton": 8756,
      "Ġsustained": 8757,
      "Ġmountains": 8758,
      "ĠFilm": 8759,
      "Ġvictory": 8760,
      "Ġdecompression": 8761,
      "Ġincreasingly": 8762,
      "Ġapologized": 8763,
      "Ġoxidation": 8764,
      "ĠChampionship": 8765,
      "AAF": 8766,
      "Ġtissues": 8767,
      "Ġcherry": 8768,
      "ĠTatanka": 8769,
      "ĠTennessee": 8770,
      "ĠSatur": 8771,
      "ĠSaint": 8772,
      "Ġgorilla": 8773,
      "Ġeclip": 8774,
      "Ġreunited": 8775,
      "ĠJonathan": 8776,
      "ĠJulie": 8777,
      "ĠCleveland": 8778,
      "Ġoutdoors": 8779,
      "âĤ¬âĢľ": 8780,
      "Ġgrinned": 8781,
      "ĠAngel": 8782,
      "Ġglobal": 8783,
      "ĠLegislative": 8784,
      "Ġphosphorus": 8785,
      "Ġparallel": 8786,
      "Ġresponsibility": 8787,
      "ĠInternet": 8788,
      "ĠMurdoch": 8789,
      "Ġphilosophy": 8790,
      "Ġicon": 8791,
      "Ġsuicide": 8792,
      "Ġthermometer": 8793,
      "Ġbudge": 8794,
      "Ġfreedom": 8795,
      "Ġmutiny": 8796,
      "Ġinnov": 8797,
      "ĠLayla": 8798,
      "ĠIBM": 8799,
      "Ġreversed": 8800,
      "ĠOhio": 8801,
      "Ġplatform": 8802,
      "ĠFootball": 8803,
      "ĠPuppets": 8804,
      "Ġlemurs": 8805,
      "Ġprobably": 8806,
      "ĠUtah": 8807,
      "Ġcontempor": 8808,
      "Ġcomparison": 8809,
      "Ġdisgusting": 8810,
      "Ġbuzzing": 8811,
      "Ġcredited": 8812,
      "Ġcrashes": 8813,
      "Ġinternational": 8814,
      "Ġrefreshed": 8815,
      "Ġbattleships": 8816,
      "Ġconvinced": 8817,
      "ĠThanksgiving": 8818,
      "ĠâĪĴ": 8819,
      "Ġingredients": 8820,
      "Ġessay": 8821,
      "Ġslept": 8822,
      "Ġsiege": 8823,
      "Ġsnapped": 8824,
      "ĠBuilding": 8825,
      "Ġanchor": 8826,
      "ĠConservatives": 8827,
      "ĠCatholic": 8828,
      "ĠKapoor": 8829,
      "Ġslippery": 8830,
      "ĠSpecial": 8831,
      "ĠYugoslav": 8832,
      "Ġsubmarine": 8833,
      "Ġconcerns": 8834,
      "Ġstrawberry": 8835,
      "Ġautobiography": 8836,
      "Excuse": 8837,
      "Ready": 8838,
      "Welcome": 8839,
      "konen": 8840,
      "Ġhormone": 8841,
      "itoneal": 8842,
      "Ġpiercing": 8843,
      "Ġdisease": 8844,
      "ĠSleaford": 8845,
      "ĠLieutenant": 8846,
      "ĠImbudo": 8847,
      "ĠAphrodite": 8848,
      "Ġwhispered": 8849,
      "ĠCarmichaels": 8850,
      "ĠWinslet": 8851,
      "ĠDiamond": 8852,
      "ĠDistinguished": 8853,
      "ĠDiscovery": 8854,
      "ĠEgypt": 8855,
      "ĠRylee": 8856,
      "Ġchubby": 8857,
      "Ġbrachiopod": 8858,
      "Ġtwentieth": 8859,
      "ĠKaukonen": 8860,
      "ĠKFVE": 8861,
      "Ġapplaud": 8862,
      "ĠLeicester": 8863,
      "ĠUnfortunately": 8864,
      "ĠAdvaita": 8865,
      "ĠMehldau": 8866,
      "ĠPhiladelphia": 8867,
      "'ve": 8868,
      "16": 8869,
      "24": 8870,
      "81": 8871,
      "AD": 8872,
      "All": 8873,
      "Bob": 8874,
      "HS": 8875,
      "Ha": 8876,
      "Have": 8877,
      "IA": 8878,
      "Le": 8879,
      "Our": 8880,
      "One": 8881,
      "RB": 8882,
      "Sh": 8883,
      "Sp": 8884,
      "She": 8885,
      "TA": 8886,
      "Yum": 8887,
      "ao": 8888,
      "aic": 8889,
      "aft": 8890,
      "aused": 8891,
      "ba": 8892,
      "bat": 8893,
      "ban": 8894,
      "bor": 8895,
      "bun": 8896,
      "bec": 8897,
      "bra": 8898,
      "bria": 8899,
      "ca": 8900,
      "cu": 8901,
      "cow": 8902,
      "cock": 8903,
      "cases": 8904,
      "dd": 8905,
      "din": 8906,
      "dam": 8907,
      "dess": 8908,
      "fl": 8909,
      "fare": 8910,
      "fire": 8911,
      "gal": 8912,
      "gec": 8913,
      "hor": 8914,
      "hul": 8915,
      "hous": 8916,
      "hog": 8917,
      "haul": 8918,
      "ios": 8919,
      "iations": 8920,
      "iels": 8921,
      "iative": 8922,
      "ji": 8923,
      "kra": 8924,
      "kas": 8925,
      "kie": 8926,
      "krit": 8927,
      "know": 8928,
      "lon": 8929,
      "lim": 8930,
      "lap": 8931,
      "like": 8932,
      "mm": 8933,
      "mail": 8934,
      "mins": 8935,
      "makers": 8936,
      "nat": 8937,
      "nce": 8938,
      "ois": 8939,
      "pen": 8940,
      "pan": 8941,
      "pest": 8942,
      "pool": 8943,
      "packs": 8944,
      "pected": 8945,
      "run": 8946,
      "rome": 8947,
      "rant": 8948,
      "rink": 8949,
      "sen": 8950,
      "sil": 8951,
      "the": 8952,
      "tan": 8953,
      "tos": 8954,
      "uals": 8955,
      "vard": 8956,
      "vila": 8957,
      "viron": 8958,
      "walk": 8959,
      "zil": 8960,
      "à¥": 8961,
      "Ġ#": 8962,
      "ĠÅ": 8963,
      "ĠÐ": 8964,
      "Ġir": 8965,
      "Ġions": 8966,
      "ĠYes": 8967,
      "ĠãĤ": 8968,
      "Ġiron": 8969,
      "Ġtur": 8970,
      "Ġtack": 8971,
      "Ġtab": 8972,
      "Ġtact": 8973,
      "Ġtire": 8974,
      "Ġtale": 8975,
      "Ġtune": 8976,
      "Ġtying": 8977,
      "Ġtyphoon": 8978,
      "Ġaired": 8979,
      "Ġsus": 8980,
      "Ġsip": 8981,
      "Ġselen": 8982,
      "Ġtheft": 8983,
      "edge": 8984,
      "edient": 8985,
      "inian": 8986,
      "inating": 8987,
      "rees": 8988,
      "Ġbid": 8989,
      "Ġbab": 8990,
      "Ġbury": 8991,
      "Ġbunch": 8992,
      "Ġbacked": 8993,
      "Ġbaker": 8994,
      "Ġbacon": 8995,
      "Ġbishop": 8996,
      "Ġtore": 8997,
      "Ġtourn": 8998,
      "Ġtoured": 8999,
      "Ġhom": 9000,
      "Ġhook": 9001,
      "Ġhockey": 9002,
      "erb": 9003,
      "erted": 9004,
      "erick": 9005,
      "Ġfu": 9006,
      "Ġfer": 9007,
      "Ġfills": 9008,
      "Ġfully": 9009,
      "Ġoak": 9010,
      "Ġodd": 9011,
      "itate": 9012,
      "itants": 9013,
      "itively": 9014,
      "iterr": 9015,
      "Ġwaist": 9016,
      "Ġcel": 9017,
      "Ġcens": 9018,
      "oubridge": 9019,
      "ĠTy": 9020,
      "ĠTar": 9021,
      "ĠToo": 9022,
      "ĠTall": 9023,
      "ĠTem": 9024,
      "ĠTank": 9025,
      "ĠTorn": 9026,
      "ĠToy": 9027,
      "ĠTyp": 9028,
      "ĠTechn": 9029,
      "ĠTests": 9030,
      "ĠTropical": 9031,
      "ĠTyphoon": 9032,
      "Ġpas": 9033,
      "Ġpear": 9034,
      "Ġpace": 9035,
      "Ġpine": 9036,
      "Ġpets": 9037,
      "Ġports": 9038,
      "Ġpears": 9039,
      "Ġparliament": 9040,
      "Ġpaved": 9041,
      "Ġpowered": 9042,
      "Ġpaused": 9043,
      "Ġdens": 9044,
      "Ġdiet": 9045,
      "Ġdating": 9046,
      "Ġdread": 9047,
      "Ġdyn": 9048,
      "Ġlb": 9049,
      "Ġlung": 9050,
      "Ġlighter": 9051,
      "Ġluxury": 9052,
      "isers": 9053,
      "isation": 9054,
      "isors": 9055,
      "isery": 9056,
      "Ġmes": 9057,
      "Ġmur": 9058,
      "Ġmug": 9059,
      "Ġmand": 9060,
      "Ġmice": 9061,
      "Ġmister": 9062,
      "Ġmerry": 9063,
      "Ġmuddy": 9064,
      "arly": 9065,
      "arters": 9066,
      "athetic": 9067,
      "ona": 9068,
      "onn": 9069,
      "onor": 9070,
      "onel": 9071,
      "onies": 9072,
      "onaut": 9073,
      "onents": 9074,
      "enger": 9075,
      "enopter": 9076,
      "omat": 9077,
      "omot": 9078,
      "omers": 9079,
      "Ġheight": 9080,
      "ano": 9081,
      "anut": 9082,
      "anas": 9083,
      "anied": 9084,
      "iled": 9085,
      "ilus": 9086,
      "ority": 9087,
      "ĠThess": 9088,
      "ĠTheob": 9089,
      "esign": 9090,
      "ĠSi": 9091,
      "ĠSk": 9092,
      "ĠSn": 9093,
      "ĠSans": 9094,
      "ĠSup": 9095,
      "ĠSaw": 9096,
      "ĠSult": 9097,
      "ĠSale": 9098,
      "ĠSolly": 9099,
      "ĠSaf": 9100,
      "ĠSBS": 9101,
      "Ġgut": 9102,
      "Ġgest": 9103,
      "Ġgust": 9104,
      "Ġgaz": 9105,
      "idity": 9106,
      "Ġnit": 9107,
      "Ġnuzz": 9108,
      "Ġnaked": 9109,
      "Ġinher": 9110,
      "Ġinev": 9111,
      "aly": 9112,
      "Ġthirty": 9113,
      "Ġthorough": 9114,
      "Ġthroat": 9115,
      "Ġsav": 9116,
      "ĠHy": 9117,
      "ĠHun": 9118,
      "ĠHol": 9119,
      "ĠHip": 9120,
      "ĠHog": 9121,
      "ĠHung": 9122,
      "ĠHMS": 9123,
      "ĠHomo": 9124,
      "ĠHalo": 9125,
      "lead": 9126,
      "util": 9127,
      "utgers": 9128,
      "oton": 9129,
      "otus": 9130,
      "otyp": 9131,
      "otrop": 9132,
      "ician": 9133,
      "icals": 9134,
      "ett": 9135,
      "etts": 9136,
      "elg": 9137,
      "eling": 9138,
      "eless": 9139,
      "iras": 9140,
      "vert": 9141,
      "verde": 9142,
      "ĠLy": 9143,
      "ĠLic": 9144,
      "ĠLast": 9145,
      "ĠLiver": 9146,
      "ĠLunar": 9147,
      "ĠHebel": 9148,
      "acher": 9149,
      "acles": 9150,
      "acement": 9151,
      "ammy": 9152,
      "stra": 9153,
      "state": 9154,
      "stream": 9155,
      "igan": 9156,
      "igger": 9157,
      "igades": 9158,
      "ĠIg": 9159,
      "ĠIv": 9160,
      "ĠIke": 9161,
      "ĠIda": 9162,
      "ĠIRB": 9163,
      "ĠBo": 9164,
      "ĠBat": 9165,
      "ĠBon": 9166,
      "ĠBad": 9167,
      "ĠBry": 9168,
      "ĠBall": 9169,
      "ĠBear": 9170,
      "ĠBart": 9171,
      "ĠBour": 9172,
      "ĠBudd": 9173,
      "ĠBank": 9174,
      "ĠBase": 9175,
      "ĠBount": 9176,
      "ĠBower": 9177,
      "ĠBah": 9178,
      "ĠBipp": 9179,
      "ĠBasket": 9180,
      "ĠBrey": 9181,
      "ĠBoard": 9182,
      "Ġrus": 9183,
      "Ġrif": 9184,
      "Ġrag": 9185,
      "Ġramp": 9186,
      "Ġrating": 9187,
      "Ġripped": 9188,
      "Ġriff": 9189,
      "Ġriding": 9190,
      "Ġstere": 9191,
      "Ġstitch": 9192,
      "Ġbeam": 9193,
      "Ġbeats": 9194,
      "veys": 9195,
      "Ġyield": 9196,
      "Ġyawn": 9197,
      "entially": 9198,
      "adst": 9199,
      "adian": 9200,
      "adding": 9201,
      "ĠAP": 9202,
      "ĠAle": 9203,
      "ĠAra": 9204,
      "ĠAth": 9205,
      "ĠACC": 9206,
      "ĠAstronom": 9207,
      "Ġrend": 9208,
      "Ġrein": 9209,
      "Ġrent": 9210,
      "Ġreas": 9211,
      "Ġrect": 9212,
      "Ġrepr": 9213,
      "Ġrewards": 9214,
      "Ġreject": 9215,
      "Ġresemb": 9216,
      "Ġrejected": 9217,
      "kend": 9218,
      "keleton": 9219,
      "ĠMs": 9220,
      "ĠMain": 9221,
[...]
